{
  "version": "1.0",
  "truncation": null,
  "padding": null,
  "added_tokens": [
    {
      "id": 0,
      "content": "<|endoftext|>",
      "single_word": false,
      "lstrip": false,
      "rstrip": false,
      "normalized": true,
      "special": true
    }
  ],
  "normalizer": null,
  "pre_tokenizer": {
    "type": "ByteLevel",
    "add_prefix_space": false,
    "trim_offsets": true,
    "use_regex": true
  },
  "post_processor": {
    "type": "ByteLevel",
    "add_prefix_space": true,
    "trim_offsets": false,
    "use_regex": true
  },
  "decoder": {
    "type": "ByteLevel",
    "add_prefix_space": true,
    "trim_offsets": true,
    "use_regex": true
  },
  "model": {
    "type": "BPE",
    "dropout": null,
    "unk_token": null,
    "continuing_subword_prefix": "",
    "end_of_word_suffix": "",
    "fuse_unk": false,
    "vocab": {
      "<|endoftext|>": 0,
      "<|padding|>": 1,
      "<|separator|>": 2,
      "!": 3,
      "\"": 4,
      "#": 5,
      "$": 6,
      "%": 7,
      "&": 8,
      "'": 9,
      "(": 10,
      ")": 11,
      "*": 12,
      "+": 13,
      ",": 14,
      "-": 15,
      ".": 16,
      "/": 17,
      "0": 18,
      "1": 19,
      "2": 20,
      "3": 21,
      "4": 22,
      "5": 23,
      "6": 24,
      "7": 25,
      "8": 26,
      "9": 27,
      ":": 28,
      ";": 29,
      "<": 30,
      "=": 31,
      ">": 32,
      "?": 33,
      "@": 34,
      "A": 35,
      "B": 36,
      "C": 37,
      "D": 38,
      "E": 39,
      "F": 40,
      "G": 41,
      "H": 42,
      "I": 43,
      "J": 44,
      "K": 45,
      "L": 46,
      "M": 47,
      "N": 48,
      "O": 49,
      "P": 50,
      "Q": 51,
      "R": 52,
      "S": 53,
      "T": 54,
      "U": 55,
      "V": 56,
      "W": 57,
      "X": 58,
      "Y": 59,
      "Z": 60,
      "[": 61,
      "\\": 62,
      "]": 63,
      "^": 64,
      "_": 65,
      "`": 66,
      "a": 67,
      "b": 68,
      "c": 69,
      "d": 70,
      "e": 71,
      "f": 72,
      "g": 73,
      "h": 74,
      "i": 75,
      "j": 76,
      "k": 77,
      "l": 78,
      "m": 79,
      "n": 80,
      "o": 81,
      "p": 82,
      "q": 83,
      "r": 84,
      "s": 85,
      "t": 86,
      "u": 87,
      "v": 88,
      "w": 89,
      "x": 90,
      "y": 91,
      "z": 92,
      "{": 93,
      "|": 94,
      "}": 95,
      "~": 96,
      "¡": 97,
      "¢": 98,
      "£": 99,
      "¤": 100,
      "¥": 101,
      "¦": 102,
      "§": 103,
      "¨": 104,
      "©": 105,
      "ª": 106,
      "«": 107,
      "¬": 108,
      "®": 109,
      "¯": 110,
      "°": 111,
      "±": 112,
      "²": 113,
      "³": 114,
      "´": 115,
      "µ": 116,
      "¶": 117,
      "·": 118,
      "¸": 119,
      "¹": 120,
      "º": 121,
      "»": 122,
      "¼": 123,
      "½": 124,
      "¾": 125,
      "¿": 126,
      "Â": 127,
      "Ã": 128,
      "Ä": 129,
      "Å": 130,
      "Æ": 131,
      "Ç": 132,
      "È": 133,
      "É": 134,
      "Ê": 135,
      "Ë": 136,
      "Ì": 137,
      "Í": 138,
      "Î": 139,
      "Ï": 140,
      "Ð": 141,
      "Ñ": 142,
      "Ò": 143,
      "Ó": 144,
      "Ô": 145,
      "Õ": 146,
      "Ö": 147,
      "×": 148,
      "Ø": 149,
      "Ù": 150,
      "Ú": 151,
      "Û": 152,
      "Ü": 153,
      "Ý": 154,
      "Þ": 155,
      "ß": 156,
      "à": 157,
      "á": 158,
      "â": 159,
      "ã": 160,
      "ä": 161,
      "å": 162,
      "æ": 163,
      "ç": 164,
      "è": 165,
      "é": 166,
      "ê": 167,
      "ë": 168,
      "ì": 169,
      "í": 170,
      "î": 171,
      "ï": 172,
      "ð": 173,
      "ñ": 174,
      "ò": 175,
      "ó": 176,
      "ô": 177,
      "Ā": 178,
      "ā": 179,
      "Ă": 180,
      "ă": 181,
      "Ą": 182,
      "ą": 183,
      "Ć": 184,
      "ć": 185,
      "Ĉ": 186,
      "ĉ": 187,
      "Ċ": 188,
      "ċ": 189,
      "Č": 190,
      "Ď": 191,
      "ď": 192,
      "Đ": 193,
      "đ": 194,
      "Ē": 195,
      "ē": 196,
      "Ĕ": 197,
      "ĕ": 198,
      "Ė": 199,
      "ė": 200,
      "Ę": 201,
      "ę": 202,
      "Ě": 203,
      "ě": 204,
      "Ĝ": 205,
      "ĝ": 206,
      "Ğ": 207,
      "ğ": 208,
      "Ġ": 209,
      "ġ": 210,
      "Ģ": 211,
      "ģ": 212,
      "Ĥ": 213,
      "ĥ": 214,
      "Ħ": 215,
      "ħ": 216,
      "Ĩ": 217,
      "ĩ": 218,
      "Ī": 219,
      "ī": 220,
      "Ĭ": 221,
      "ĭ": 222,
      "Į": 223,
      "į": 224,
      "İ": 225,
      "ı": 226,
      "Ĳ": 227,
      "ĳ": 228,
      "Ĵ": 229,
      "ĵ": 230,
      "Ķ": 231,
      "ķ": 232,
      "ĸ": 233,
      "Ĺ": 234,
      "ĺ": 235,
      "Ļ": 236,
      "ļ": 237,
      "Ľ": 238,
      "ľ": 239,
      "Ŀ": 240,
      "ŀ": 241,
      "Ł": 242,
      "ł": 243,
      "Ń": 244,
      "ĠĠ": 245,
      "ĠĠĠĠ": 246,
      "ĠĠĠĠĠĠĠĠ": 247,
      "in": 248,
      "ĠĠĠ": 249,
      "er": 250,
      "re": 251,
      "on": 252,
      "st": 253,
      "at": 254,
      "Ġt": 255,
      "de": 256,
      "Ġ0": 257,
      "Ġ*": 258,
      "en": 259,
      "Ġ=": 260,
      "or": 261,
      "Ġĉ": 262,
      "ĠĊ": 263,
      "00": 264,
      "se": 265,
      "al": 266,
      ");": 267,
      "**": 268,
      "//": 269,
      "--": 270,
      "le": 271,
      "Ġc": 272,
      "ar": 273,
      "ct": 274,
      "Ġ{": 275,
      "ĠĠĠĠĠĠĠ": 276,
      "it": 277,
      "an": 278,
      "ion": 279,
      "Ġ(": 280,
      "he": 281,
      "Ġf": 282,
      "ĠĠĠĠĠĠĠĠĠĠĠĠĠĠĠĠ": 283,
      "ic": 284,
      "if": 285,
      "me": 286,
      "ur": 287,
      "is": 288,
      "Ġp": 289,
      "Ġ}": 290,
      "int": 291,
      "ro": 292,
      "un": 293,
      "et": 294,
      "Ġĉĉ": 295,
      "ing": 296,
      "->": 297,
      "Ġs": 298,
      "ed": 299,
      "ut": 300,
      "Ġa": 301,
      "Ġn": 302,
      "Ġre": 303,
      "es": 304,
      "Ġb": 305,
      "Ġthe": 306,
      "Ġ#": 307,
      "----": 308,
      "lo": 309,
      "****": 310,
      "id": 311,
      "Ġ\"": 312,
      "str": 313,
      "==": 314,
      "pe": 315,
      "ent": 316,
      "Ġo": 317,
      "urn": 318,
      "def": 319,
      "mp": 320,
      "ac": 321,
      "Ġ//": 322,
      "turn": 323,
      "ex": 324,
      "Ġv": 325,
      "ue": 326,
      "ad": 327,
      "Ġm": 328,
      "ame": 329,
      "ĠĠĠĠĠĠĠĠĠĠĠ": 330,
      "ĠS": 331,
      "as": 332,
      "tr": 333,
      "ate": 334,
      "ine": 335,
      "()": 336,
      "Ġ*/": 337,
      "ig": 338,
      "il": 339,
      "el": 340,
      "ag": 341,
      "ĠT": 342,
      "ul": 343,
      "Ġw": 344,
      "ff": 345,
      "co": 346,
      "\",": 347,
      "Ġ/": 348,
      "Ġd": 349,
      "ĉĉ": 350,
      "th": 351,
      "Ġ1": 352,
      "Ġin": 353,
      "ĠC": 354,
      "IN": 355,
      "ype": 356,
      "ce": 357,
      "::": 358,
      "ĠĠĠĠĠ": 359,
      "Ġ<": 360,
      "ĠA": 361,
      "ap": 362,
      "0000": 363,
      "In": 364,
      "ol": 365,
      "define": 366,
      "ab": 367,
      "Ġi": 368,
      "Ġst": 369,
      "and": 370,
      "ER": 371,
      "get": 372,
      "ch": 373,
      "Ġcon": 374,
      "uct": 375,
      "ot": 376,
      "Ġ'": 377,
      "Ġu": 378,
      "err": 379,
      "um": 380,
      "pt": 381,
      "Ġth": 382,
      "iz": 383,
      "Ġto": 384,
      "ub": 385,
      "Ġl": 386,
      "set": 387,
      "Ġint": 388,
      "ation": 389,
      "ck": 390,
      "__": 391,
      "Ġif": 392,
      "struct": 393,
      "ode": 394,
      "iv": 395,
      "Ġ&": 396,
      "return": 397,
      "--------": 398,
      "),": 399,
      "ction": 400,
      "ĠP": 401,
      "********": 402,
      "am": 403,
      "ist": 404,
      "RE": 405,
      "ort": 406,
      "////": 407,
      "ata": 408,
      "Ġ/*": 409,
      "Re": 410,
      "ss": 411,
      "cl": 412,
      "ST": 413,
      "ext": 414,
      "con": 415,
      "====": 416,
      "end": 417,
      "Ġ-": 418,
      "32": 419,
      "ize": 420,
      "te": 421,
      "ay": 422,
      "us": 423,
      "ON": 424,
      "Ġis": 425,
      "ĠĠĠĠĠĠĠĠĠĠĠĠĠĠĠ": 426,
      "Ġof": 427,
      "Ġh": 428,
      "Ġreturn": 429,
      "ase": 430,
      "Ġ+": 431,
      "ter": 432,
      "ĠD": 433,
      "EN": 434,
      "(\"": 435,
      "dev": 436,
      "ĠM": 437,
      "able": 438,
      "ile": 439,
      "ew": 440,
      "alue": 441,
      "ĠL": 442,
      "op": 443,
      "Ġ2": 444,
      "ĠN": 445,
      "Ġfor": 446,
      "ĠI": 447,
      "ĠF": 448,
      "age": 449,
      "AT": 450,
      "lic": 451,
      "))": 452,
      "ect": 453,
      "up": 454,
      "Ġ@": 455,
      "oid": 456,
      "OR": 457,
      "ult": 458,
      "ĠG": 459,
      "ĠB": 460,
      "Ġe": 461,
      "Ġĉĉĉ": 462,
      "',": 463,
      "SE": 464,
      "ert": 465,
      "all": 466,
      "IT": 467,
      "MA": 468,
      "od": 469,
      "Ġr": 470,
      "ib": 471,
      "ass": 472,
      "ack": 473,
      "ĠE": 474,
      "ers": 475,
      "om": 476,
      "Ġ:": 477,
      "Ġstat": 478,
      "AL": 479,
      "im": 480,
      "ption": 481,
      "Ġg": 482,
      "AR": 483,
      "ir": 484,
      "Ġconst": 485,
      "Ġthis": 486,
      "DE": 487,
      "fo": 488,
      "Ġ==": 489,
      "to": 490,
      "();": 491,
      "res": 492,
      "01": 493,
      "Con": 494,
      "LE": 495,
      "nt": 496,
      "Ġerr": 497,
      "par": 498,
      "ith": 499,
      "ow": 500,
      "Ġvoid": 501,
      "unction": 502,
      "ment": 503,
      "Ġ!": 504,
      "ht": 505,
      "Ġ|": 506,
      "ĠR": 507,
      "Ġstatic": 508,
      "Ġand": 509,
      "Ġĉĉĉĉ": 510,
      "St": 511,
      "ke": 512,
      "lock": 513,
      "qu": 514,
      "ign": 515,
      "sc": 516,
      "pr": 517,
      "ublic": 518,
      "},": 519,
      "UL": 520,
      "ĠĠĠĠĠĠĠĠĠĠĠĠĠĠĠĠĠĠĠĠĠĠĠĠĠĠĠĠĠĠĠĠ": 521,
      "bj": 522,
      "Ġbe": 523,
      "ite": 524,
      "ĠO": 525,
      "ime": 526,
      "bu": 527,
      "ace": 528,
      "for": 529,
      "string": 530,
      "Ġ$": 531,
      "av": 532,
      "put": 533,
      "rr": 534,
      "64": 535,
      "ri": 536,
      "of": 537,
      "////////": 538,
      "der": 539,
      "sp": 540,
      "Ġse": 541,
      "ice": 542,
      "ess": 543,
      "are": 544,
      "Ġ[": 545,
      "CT": 546,
      "Ġ_": 547,
      "FF": 548,
      "os": 549,
      "que": 550,
      "Ġor": 551,
      "ĠU": 552,
      "----------------": 553,
      "****************": 554,
      "ip": 555,
      "ang": 556,
      "Ġun": 557,
      "type": 558,
      "16": 559,
      "out": 560,
      "ma": 561,
      "Ġde": 562,
      "Type": 563,
      "art": 564,
      "ID": 565,
      "AN": 566,
      "/*": 567,
      "data": 568,
      "Ġpro": 569,
      "tring": 570,
      "dr": 571,
      "========": 572,
      "est": 573,
      "pro": 574,
      "000": 575,
      "our": 576,
      "this": 577,
      "Ex": 578,
      "name": 579,
      "clu": 580,
      "ull": 581,
      "ĠW": 582,
      "Ġch": 583,
      "Ġimp": 584,
      "Ġtr": 585,
      "pl": 586,
      "ĠĠĠĠĠĠ": 587,
      "10": 588,
      "oun": 589,
      "Ġex": 590,
      "ight": 591,
      "val": 592,
      "rom": 593,
      "12": 594,
      "clude": 595,
      "ain": 596,
      "ver": 597,
      "Ġ!=": 598,
      "else": 599,
      "ĠĠĠĠĠĠĠĠĠĠĠĠĠĠĠĠĠĠĠ": 600,
      "arg": 601,
      "IC": 602,
      "Ġstruct": 603,
      "bject": 604,
      "Ġnew": 605,
      "oc": 606,
      "yp": 607,
      "ath": 608,
      "Ġ>": 609,
      "ser": 610,
      "Ġon": 611,
      "ĠH": 612,
      "Name": 613,
      "dex": 614,
      "text": 615,
      "port": 616,
      "Ġpublic": 617,
      "SI": 618,
      "));": 619,
      "ense": 620,
      "ĠĠĠĠĠĠĠĠĠ": 621,
      "ure": 622,
      "Ġ__": 623,
      "AD": 624,
      "ind": 625,
      "io": 626,
      "dd": 627,
      "param": 628,
      "lf": 629,
      "],": 630,
      "11": 631,
      "size": 632,
      "oint": 633,
      "em": 634,
      "len": 635,
      "ity": 636,
      "omp": 637,
      "\");": 638,
      "TR": 639,
      "Ġtype": 640,
      "iel": 641,
      "oo": 642,
      "fig": 643,
      "Ġcl": 644,
      "sh": 645,
      "unc": 646,
      "De": 647,
      "include": 648,
      "PI": 649,
      "ield": 650,
      "ial": 651,
      "ire": 652,
      "per": 653,
      "Ġ)": 654,
      "Ġnot": 655,
      "Ġit": 656,
      "ource": 657,
      "Ġ/**": 658,
      "ĠV": 659,
      "Ġ,": 660,
      "..": 661,
      "act": 662,
      "Ġ\\": 663,
      "ide": 664,
      "Pro": 665,
      "Ġan": 666,
      "Ġme": 667,
      "vent": 668,
      "ME": 669,
      "Ġwith": 670,
      "ool": 671,
      "quest": 672,
      "loc": 673,
      "UT": 674,
      "CH": 675,
      "Ġimport": 676,
      "ree": 677,
      "Ġ3": 678,
      "reg": 679,
      "icense": 680,
      "sign": 681,
      "ast": 682,
      "Ġby": 683,
      "ms": 684,
      "cc": 685,
      "ak": 686,
      "SS": 687,
      "RO": 688,
      "key": 689,
      "Ġ%": 690,
      "Ġuint": 691,
      "Ġ&&": 692,
      "ress": 693,
      "ULL": 694,
      "read": 695,
      "Ġdef": 696,
      "ator": 697,
      "ibut": 698,
      "(&": 699,
      "Ġname": 700,
      "LO": 701,
      "PE": 702,
      "String": 703,
      "lag": 704,
      "ve": 705,
      "Ġ=>": 706,
      "Ġ},": 707,
      "ive": 708,
      "Ġ<<": 709,
      "Ġ4": 710,
      "ly": 711,
      "Ġ///": 712,
      "code": 713,
      "ition": 714,
      "##": 715,
      "TI": 716,
      ").": 717,
      "ask": 718,
      "Ġuse": 719,
      "56": 720,
      "Ġ:=": 721,
      "20": 722,
      "ener": 723,
      "Err": 724,
      "atch": 725,
      "xff": 726,
      "Ġj": 727,
      "ong": 728,
      "ail": 729,
      "Ġelse": 730,
      "value": 731,
      "AC": 732,
      "ore": 733,
      "Ġvalue": 734,
      "signed": 735,
      "alse": 736,
      "form": 737,
      "ll": 738,
      "Ġfunction": 739,
      "Ġget": 740,
      "80": 741,
      "IS": 742,
      "CO": 743,
      "Res": 744,
      "low": 745,
      "rite": 746,
      "UN": 747,
      "Ġwh": 748,
      "ault": 749,
      "ED": 750,
      "ĠIn": 751,
      "lement": 752,
      "ary": 753,
      "Ġx": 754,
      "Ġset": 755,
      "ix": 756,
      "AB": 757,
      "Ġthat": 758,
      "IF": 759,
      "gth": 760,
      "ost": 761,
      "En": 762,
      "Ġres": 763,
      "ffer": 764,
      "pp": 765,
      "info": 766,
      "Ġy": 767,
      "];": 768,
      "Ġsize": 769,
      "ans": 770,
      "row": 771,
      "MP": 772,
      "23": 773,
      "ber": 774,
      "++": 775,
      "Ġstring": 776,
      "ersion": 777,
      "one": 778,
      "opy": 779,
      "ĠThe": 780,
      "ename": 781,
      "ory": 782,
      "ated": 783,
      "Ġas": 784,
      "CL": 785,
      "ient": 786,
      "ec": 787,
      "\":": 788,
      "ill": 789,
      "Ġerror": 790,
      "15": 791,
      "ffset": 792,
      "INT": 793,
      "Ġsh": 794,
      "tp": 795,
      "ance": 796,
      "Ġfrom": 797,
      "ĠLicense": 798,
      "ust": 799,
      "EX": 800,
      "Ġ};": 801,
      "IG": 802,
      "Ġal": 803,
      "reak": 804,
      "To": 805,
      "map": 806,
      "ĠRe": 807,
      "heck": 808,
      "13": 809,
      "Id": 810,
      "ptr": 811,
      "add": 812,
      "ref": 813,
      "////////////////": 814,
      "GE": 815,
      "lin": 816,
      "com": 817,
      "ant": 818,
      "const": 819,
      "ĠĠĠĠĠĠĠĠĠĠĠĠĠĠĠĠĠĠĠĠĠĠĠĠ": 820,
      "arr": 821,
      "ception": 822,
      "pec": 823,
      "mpl": 824,
      "US": 825,
      "ord": 826,
      "ĠNULL": 827,
      "var": 828,
      "ule": 829,
      "Ġfunc": 830,
      "('": 831,
      "14": 832,
      "(),": 833,
      "rc": 834,
      "ern": 835,
      "Ġchar": 836,
      "Ġfile": 837,
      "ard": 838,
      "mo": 839,
      "Ġnull": 840,
      "Ġpr": 841,
      "Value": 842,
      "ange": 843,
      "unt": 844,
      "ĠTh": 845,
      "89": 846,
      "roup": 847,
      "ax": 848,
      "ache": 849,
      "ĠĠĠĠĠĠĠĠĠĠĠĠĠĠĠĠĠĠĠĠĠĠĠ": 850,
      "ister": 851,
      "Cl": 852,
      "Set": 853,
      "Ġ((": 854,
      "Ġclass": 855,
      "stat": 856,
      "Ġen": 857,
      "function": 858,
      "Ġdata": 859,
      "ry": 860,
      "ee": 861,
      "List": 862,
      "reate": 863,
      "line": 864,
      "device": 865,
      "\")": 866,
      "by": 867,
      "Ġtrue": 868,
      "Ġnil": 869,
      "gr": 870,
      "ypename": 871,
      "SH": 872,
      "ies": 873,
      "ivate": 874,
      "Ġ||": 875,
      "lags": 876,
      "Ġlo": 877,
      "Ġ.": 878,
      "Ġ(!": 879,
      "Ġout": 880,
      "ader": 881,
      "Ġat": 882,
      "Data": 883,
      "Ġk": 884,
      "cp": 885,
      "\",\"": 886,
      "Ġself": 887,
      "case": 888,
      "buf": 889,
      "sy": 890,
      "IO": 891,
      "CC": 892,
      "Ġfalse": 893,
      "40": 894,
      "ork": 895,
      "Ch": 896,
      "endif": 897,
      "uint": 898,
      "ERR": 899,
      "cted": 900,
      "Get": 901,
      "ream": 902,
      "================": 903,
      "ING": 904,
      "ou": 905,
      "aw": 906,
      "HE": 907,
      "md": 908,
      "ann": 909,
      "00000000": 910,
      "urre": 911,
      "ret": 912,
      "].": 913,
      "Error": 914,
      "Ġ5": 915,
      "Ġdo": 916,
      "PP": 917,
      "CON": 918,
      "xf": 919,
      "umber": 920,
      "ave": 921,
      "OP": 922,
      "Ġ);": 923,
      "24": 924,
      "Ġvar": 925,
      "OT": 926,
      "18": 927,
      "Ġbu": 928,
      "vice": 929,
      "Ġval": 930,
      "((": 931,
      "ound": 932,
      "file": 933,
      "pert": 934,
      "03": 935,
      "ount": 936,
      "TY": 937,
      "ĠThis": 938,
      "SK": 939,
      "tain": 940,
      "ph": 941,
      "inal": 942,
      "ument": 943,
      "ild": 944,
      "ens": 945,
      "array": 946,
      "oft": 947,
      "IP": 948,
      "REG": 949,
      "TH": 950,
      "CK": 951,
      "\";": 952,
      "25": 953,
      "its": 954,
      "Ġare": 955,
      "state": 956,
      "ware": 957,
      "SY": 958,
      "Ġcase": 959,
      "Tr": 960,
      "ach": 961,
      "ifi": 962,
      "back": 963,
      "istr": 964,
      "Un": 965,
      "ther": 966,
      "********************************": 967,
      "IL": 968,
      "urrent": 969,
      "Ġcomp": 970,
      "Bu": 971,
      "stem": 972,
      "SC": 973,
      "Ġpar": 974,
      "mple": 975,
      "tro": 976,
      "Par": 977,
      "OL": 978,
      "orm": 979,
      "--------------------------------": 980,
      "void": 981,
      "At": 982,
      "ION": 983,
      "[]": 984,
      "19": 985,
      "list": 986,
      "Ġtypename": 987,
      "og": 988,
      "init": 989,
      "Ġus": 990,
      "LA": 991,
      "Ġreg": 992,
      "onse": 993,
      "ptions": 994,
      "andle": 995,
      "ef": 996,
      "Ġle": 997,
      "UR": 998,
      "17": 999,
      "ock": 1000,
      "loat": 1001,
      "new": 1002,
      "nd": 1003,
      "date": 1004,
      "Ġlen": 1005,
      "=\"": 1006,
      "nc": 1007,
      "ey": 1008,
      "addr": 1009,
      "xb": 1010,
      "33": 1011,
      "CE": 1012,
      "Ġ8": 1013,
      "ector": 1014,
      "ty": 1015,
      "bo": 1016,
      "</": 1017,
      "sk": 1018,
      "Ġbool": 1019,
      "Ġwe": 1020,
      "qual": 1021,
      "tx": 1022,
      "rame": 1023,
      "DR": 1024,
      "04": 1025,
      "Object": 1026,
      "Ġass": 1027,
      "test": 1028,
      "MO": 1029,
      "STAT": 1030,
      "Key": 1031,
      "af": 1032,
      "().": 1033,
      "Info": 1034,
      "right": 1035,
      "Ser": 1036,
      "ash": 1037,
      "use": 1038,
      "uld": 1039,
      "SET": 1040,
      "app": 1041,
      "tribut": 1042,
      "count": 1043,
      "pc": 1044,
      "be": 1045,
      "omm": 1046,
      "Ġcan": 1047,
      "ger": 1048,
      "ould": 1049,
      "):": 1050,
      "ence": 1051,
      "02": 1052,
      "col": 1053,
      "lect": 1054,
      "ep": 1055,
      "ENT": 1056,
      "odel": 1057,
      "ORT": 1058,
      "ameter": 1059,
      "own": 1060,
      "55": 1061,
      "ere": 1062,
      "NE": 1063,
      "99": 1064,
      "print": 1065,
      "Exception": 1066,
      "iew": 1067,
      "face": 1068,
      "rit": 1069,
      "ery": 1070,
      "Ġarg": 1071,
      "li": 1072,
      "Se": 1073,
      "no": 1074,
      "arget": 1075,
      "ystem": 1076,
      "OST": 1077,
      "ux": 1078,
      "Size": 1079,
      "());": 1080,
      "unsigned": 1081,
      "ĠString": 1082,
      "Ġ`": 1083,
      "Col": 1084,
      "Ġ6": 1085,
      "Ġtest": 1086,
      "Sc": 1087,
      "stance": 1088,
      "tes": 1089,
      "ABLE": 1090,
      "node": 1091,
      "comp": 1092,
      "AP": 1093,
      "cess": 1094,
      "Ġadd": 1095,
      "error": 1096,
      "istribut": 1097,
      "fer": 1098,
      "ken": 1099,
      "){": 1100,
      "MASK": 1101,
      "ml": 1102,
      "Ġstd": 1103,
      "Ġlong": 1104,
      "IM": 1105,
      "fs": 1106,
      "TE": 1107,
      "Ġext": 1108,
      "22": 1109,
      "CR": 1110,
      "Ġ?": 1111,
      "mem": 1112,
      "ined": 1113,
      "write": 1114,
      "space": 1115,
      "Ġend": 1116,
      "ge": 1117,
      "._": 1118,
      "mt": 1119,
      "ccess": 1120,
      "oftware": 1121,
      "30": 1122,
      "son": 1123,
      "VAL": 1124,
      "xc": 1125,
      "index": 1126,
      "xa": 1127,
      "length": 1128,
      "xFF": 1129,
      "77": 1130,
      "ĠCon": 1131,
      "Index": 1132,
      "odule": 1133,
      "self": 1134,
      "Ġwill": 1135,
      "Time": 1136,
      "28": 1137,
      "Ġsc": 1138,
      "TYPE": 1139,
      "Test": 1140,
      "Ġprivate": 1141,
      "State": 1142,
      "ual": 1143,
      "ĠX": 1144,
      "Ġĉĉĉĉĉ": 1145,
      "Ġresult": 1146,
      "path": 1147,
      "ud": 1148,
      "time": 1149,
      "CM": 1150,
      "log": 1151,
      "perty": 1152,
      "ues": 1153,
      "num": 1154,
      "AS": 1155,
      "ART": 1156,
      "sum": 1157,
      "ĠĠĠĠĠĠĠĠĠĠĠĠĠ": 1158,
      "Ġ+=": 1159,
      "ilter": 1160,
      "ific": 1161,
      "ne": 1162,
      "($": 1163,
      "AM": 1164,
      "File": 1165,
      "BU": 1166,
      "ctx": 1167,
      "ointer": 1168,
      "mb": 1169,
      "ded": 1170,
      "ps": 1171,
      ":\"": 1172,
      "ations": 1173,
      "Comp": 1174,
      "Node": 1175,
      "break": 1176,
      "Pos": 1177,
      "tent": 1178,
      "valid": 1179,
      "ĠK": 1180,
      "annel": 1181,
      "start": 1182,
      "quire": 1183,
      "db": 1184,
      "uth": 1185,
      "ponse": 1186,
      "opyright": 1187,
      "rray": 1188,
      "08": 1189,
      "ĠQ": 1190,
      "min": 1191,
      "Ġte": 1192,
      "andl": 1193,
      "irst": 1194,
      "mplate": 1195,
      "Ġ7": 1196,
      "idth": 1197,
      "ify": 1198,
      "Context": 1199,
      "Reg": 1200,
      "vel": 1201,
      "())": 1202,
      "000000": 1203,
      "esc": 1204,
      "char": 1205,
      "ript": 1206,
      "lean": 1207,
      "Stat": 1208,
      "uble": 1209,
      "ake": 1210,
      "VE": 1211,
      "byte": 1212,
      "class": 1213,
      "Ġlist": 1214,
      "Ġunsigned": 1215,
      "ZE": 1216,
      "ĠAN": 1217,
      "Ġhe": 1218,
      "Ġspec": 1219,
      "UE": 1220,
      "Field": 1221,
      "Request": 1222,
      "base": 1223,
      "Config": 1224,
      "SP": 1225,
      "Ġunder": 1226,
      "ions": 1227,
      "entry": 1228,
      "SR": 1229,
      "OUT": 1230,
      "config": 1231,
      "By": 1232,
      "IR": 1233,
      "ĠĠĠĠĠĠĠĠĠĠ": 1234,
      "trol": 1235,
      "88": 1236,
      "Ġcall": 1237,
      "ww": 1238,
      "indow": 1239,
      "work": 1240,
      "ĠOR": 1241,
      "','": 1242,
      "Met": 1243,
      "dent": 1244,
      "ttp": 1245,
      "50": 1246,
      "Ġtime": 1247,
      "pos": 1248,
      "Ġ/*!": 1249,
      "NO": 1250,
      "lay": 1251,
      "27": 1252,
      "UP": 1253,
      "Ġper": 1254,
      "Ġkey": 1255,
      "ĠJ": 1256,
      "Ġsy": 1257,
      "Ġusing": 1258,
      "dis": 1259,
      "mpty": 1260,
      ")(": 1261,
      "FA": 1262,
      "ĉĉĉĉ": 1263,
      "max": 1264,
      "pre": 1265,
      "NU": 1266,
      "Ġassert": 1267,
      "thod": 1268,
      "ĠĠĠĠĠĠĠĠĠĠĠĠ": 1269,
      "://": 1270,
      "bug": 1271,
      "ffff": 1272,
      "arent": 1273,
      "try": 1274,
      "result": 1275,
      "sw": 1276,
      "44": 1277,
      "])": 1278,
      "RL": 1279,
      "OOST": 1280,
      "load": 1281,
      "ĠTHE": 1282,
      "rg": 1283,
      "Event": 1284,
      "link": 1285,
      "26": 1286,
      "sub": 1287,
      "xe": 1288,
      "Ġret": 1289,
      "21": 1290,
      "net": 1291,
      "SIZE": 1292,
      "move": 1293,
      "['": 1294,
      "Ġcode": 1295,
      "ES": 1296,
      "Ġup": 1297,
      "Th": 1298,
      "Ġobject": 1299,
      "Len": 1300,
      "ĠGet": 1301,
      "sed": 1302,
      "uration": 1303,
      "####": 1304,
      "DAT": 1305,
      "upport": 1306,
      "VER": 1307,
      "priv": 1308,
      "29": 1309,
      "gin": 1310,
      "Def": 1311,
      "PRO": 1312,
      "aa": 1313,
      "ting": 1314,
      "ait": 1315,
      "567": 1316,
      "ssage": 1317,
      "ush": 1318,
      "TO": 1319,
      "Add": 1320,
      "hed": 1321,
      "*/": 1322,
      "pi": 1323,
      "Map": 1324,
      "xd": 1325,
      "Ġtypedef": 1326,
      "PC": 1327,
      "ĠĠĠĠĠĠĠĠĠĠĠĠĠĠĠĠĠĠĠĠĠĠĠĠĠĠĠ": 1328,
      "SYS": 1329,
      "ĠIN": 1330,
      "34": 1331,
      "FI": 1332,
      "////////////////////////////////": 1333,
      "Ġfield": 1334,
      "oto": 1335,
      "86": 1336,
      "di": 1337,
      "PL": 1338,
      "abel": 1339,
      "234": 1340,
      "status": 1341,
      "IFT": 1342,
      "andler": 1343,
      "rt": 1344,
      "!!": 1345,
      "Ġfinal": 1346,
      "iver": 1347,
      "ved": 1348,
      "EXT": 1349,
      "iss": 1350,
      "ĠIf": 1351,
      "hw": 1352,
      "ject": 1353,
      "rap": 1354,
      "Int": 1355,
      "Ġz": 1356,
      "verr": 1357,
      "imit": 1358,
      "')": 1359,
      "Ġ/*!<": 1360,
      "lete": 1361,
      "Ġrequest": 1362,
      "36": 1363,
      "ypes": 1364,
      "flags": 1365,
      "ĠSt": 1366,
      "Sh": 1367,
      "Ġso": 1368,
      "onent": 1369,
      "mm": 1370,
      "ise": 1371,
      "Ġbreak": 1372,
      "Ġ16": 1373,
      "uto": 1374,
      "TC": 1375,
      "Code": 1376,
      "pen": 1377,
      "DC": 1378,
      "ld": 1379,
      "ava": 1380,
      "pected": 1381,
      "mse": 1382,
      "arch": 1383,
      "He": 1384,
      "Ġused": 1385,
      "item": 1386,
      "++)": 1387,
      "Text": 1388,
      "Ġstr": 1389,
      "fd": 1390,
      "AME": 1391,
      "essage": 1392,
      ">(": 1393,
      "ample": 1394,
      "54": 1395,
      "sg": 1396,
      "Ġ[]": 1397,
      "tribute": 1398,
      "mary": 1399,
      "Val": 1400,
      "Ġany": 1401,
      "ĠCON": 1402,
      "06": 1403,
      "LIN": 1404,
      "led": 1405,
      "verride": 1406,
      "Ġpack": 1407,
      "Ġall": 1408,
      "PR": 1409,
      "req": 1410,
      "&&": 1411,
      "table": 1412,
      "mode": 1413,
      "DB": 1414,
      "Ġread": 1415,
      "56789": 1416,
      "Array": 1417,
      "desc": 1418,
      "Ġid": 1419,
      "point": 1420,
      "31": 1421,
      "ĠOF": 1422,
      "':": 1423,
      "Ġdis": 1424,
      "itch": 1425,
      "ark": 1426,
      "mask": 1427,
      "lection": 1428,
      "ĠCopyright": 1429,
      "ĠBOOST": 1430,
      "offset": 1431,
      "bit": 1432,
      "Ġarray": 1433,
      "SU": 1434,
      "Ġcol": 1435,
      "})": 1436,
      "lob": 1437,
      "23456789": 1438,
      "Ġyou": 1439,
      "Ġad": 1440,
      "Ġmay": 1441,
      "ates": 1442,
      "event": 1443,
      "free": 1444,
      "util": 1445,
      "07": 1446,
      "Ġhave": 1447,
      "Ġdefault": 1448,
      "37": 1449,
      "PO": 1450,
      "attr": 1451,
      "Ġnumber": 1452,
      "Ite": 1453,
      "PIO": 1454,
      "mat": 1455,
      "ick": 1456,
      "Ġ9": 1457,
      "LI": 1458,
      "msg": 1459,
      "Ġstate": 1460,
      "Path": 1461,
      "tern": 1462,
      "Ġno": 1463,
      "comm": 1464,
      "05": 1465,
      "ĠSet": 1466,
      "ces": 1467,
      "Ġshould": 1468,
      "66": 1469,
      "Class": 1470,
      "MAX": 1471,
      "Ġser": 1472,
      "KE": 1473,
      "Ġ>=": 1474,
      "SO": 1475,
      "irect": 1476,
      "cond": 1477,
      "Ġversion": 1478,
      "ote": 1479,
      "std": 1480,
      "ĠĠĠĠĠĠĠĠĠĠĠĠĠĠĠĠĠ": 1481,
      "anag": 1482,
      "38": 1483,
      "cur": 1484,
      "ĠEX": 1485,
      "39": 1486,
      "35": 1487,
      "field": 1488,
      "DO": 1489,
      "ich": 1490,
      "ute": 1491,
      "AA": 1492,
      "ink": 1493,
      "FT": 1494,
      "buffer": 1495,
      "0123456789": 1496,
      "bl": 1497,
      "oolean": 1498,
      "xx": 1499,
      "Ġq": 1500,
      "\"\"": 1501,
      "let": 1502,
      "Ġsizeof": 1503,
      "py": 1504,
      "Ġorg": 1505,
      "BIT": 1506,
      "DI": 1507,
      "user": 1508,
      "default": 1509,
      "...": 1510,
      "ITY": 1511,
      "Ġcopy": 1512,
      "yle": 1513,
      "alloc": 1514,
      "']": 1515,
      "ĠĠĠĠĠĠĠĠĠĠĠĠĠĠ": 1516,
      "press": 1517,
      "Ġoffset": 1518,
      "tail": 1519,
      "Ġdistribut": 1520,
      "eturn": 1521,
      "ommand": 1522,
      "umn": 1523,
      "cs": 1524,
      "summary": 1525,
      "ernal": 1526,
      "TL": 1527,
      "WR": 1528,
      "Ġro": 1529,
      "XX": 1530,
      "CLK": 1531,
      "ont": 1532,
      "und": 1533,
      "ĠEx": 1534,
      "SHIFT": 1535,
      "Ġindex": 1536,
      "next": 1537,
      "Out": 1538,
      "irq": 1539,
      "Ġhttp": 1540,
      "block": 1541,
      "Ġ*)": 1542,
      "CF": 1543,
      "play": 1544,
      "assert": 1545,
      "Ġne": 1546,
      "Ġsub": 1547,
      "action": 1548,
      "ĠY": 1549,
      "Ġthrow": 1550,
      "09": 1551,
      "mage": 1552,
      "rl": 1553,
      "'s": 1554,
      "abled": 1555,
      "Is": 1556,
      "\"),": 1557,
      "};": 1558,
      "xF": 1559,
      "old": 1560,
      "BA": 1561,
      "DMA": 1562,
      "';": 1563,
      "Message": 1564,
      "Ġ</": 1565,
      "RAN": 1566,
      "Equal": 1567,
      "GL": 1568,
      "ERROR": 1569,
      "ĠIS": 1570,
      "PU": 1571,
      "do": 1572,
      "ĠGL": 1573,
      "Status": 1574,
      "Ġnode": 1575,
      "core": 1576,
      "ializ": 1577,
      "group": 1578,
      "Ġapp": 1579,
      "ning": 1580,
      "queue": 1581,
      "cept": 1582,
      "STR": 1583,
      "Ġinter": 1584,
      "vm": 1585,
      "Ġcheck": 1586,
      "org": 1587,
      "Element": 1588,
      "Ġstart": 1589,
      "Ġhas": 1590,
      "ell": 1591,
      "local": 1592,
      "iter": 1593,
      "01234567890123456789": 1594,
      "TX": 1595,
      "'t": 1596,
      "Response": 1597,
      "vert": 1598,
      "Ġ**": 1599,
      "so": 1600,
      "Ġconfig": 1601,
      "cmd": 1602,
      "gle": 1603,
      "ok": 1604,
      "MC": 1605,
      "(){": 1606,
      "ULT": 1607,
      "cpu": 1608,
      "context": 1609,
      "ft": 1610,
      "Ġpre": 1611,
      "ĠGener": 1612,
      "call": 1613,
      "linux": 1614,
      "87": 1615,
      "ocument": 1616,
      "client": 1617,
      "Ġcom": 1618,
      "SA": 1619,
      "Loc": 1620,
      "CTRL": 1621,
      "Ġoper": 1622,
      "DATA": 1623,
      "input": 1624,
      "Desc": 1625,
      "xE": 1626,
      "Al": 1627,
      "Ġinput": 1628,
      "public": 1629,
      "clk": 1630,
      "================================": 1631,
      "Count": 1632,
      "proto": 1633,
      "create": 1634,
      "http": 1635,
      "Qu": 1636,
      "ors": 1637,
      "MB": 1638,
      "Ġ10": 1639,
      "Ġmax": 1640,
      "MS": 1641,
      "For": 1642,
      "Ġnamespace": 1643,
      "upt": 1644,
      "Ġĉĉĉĉĉĉ": 1645,
      "ATE": 1646,
      "object": 1647,
      "ified": 1648,
      "DEV": 1649,
      "Of": 1650,
      "inter": 1651,
      "Ġbut": 1652,
      "An": 1653,
      "FIG": 1654,
      "Ġwhen": 1655,
      "imer": 1656,
      "TA": 1657,
      "Result": 1658,
      "Up": 1659,
      "Ġdevice": 1660,
      "59": 1661,
      "Ġmem": 1662,
      "eb": 1663,
      "Ġdr": 1664,
      "Group": 1665,
      "goto": 1666,
      "Ad": 1667,
      "ĠUn": 1668,
      "ift": 1669,
      "ription": 1670,
      "PORT": 1671,
      "ages": 1672,
      "ie": 1673,
      "84": 1674,
      "Ġonly": 1675,
      "iled": 1676,
      "ume": 1677,
      "]);": 1678,
      "ics": 1679,
      "printf": 1680,
      "irt": 1681,
      "lear": 1682,
      "Ġ>>": 1683,
      "Ġtemplate": 1684,
      "scall": 1685,
      "Ġmust": 1686,
      "pack": 1687,
      "anager": 1688,
      "Ġcurrent": 1689,
      "ob": 1690,
      "HT": 1691,
      "ilder": 1692,
      "word": 1693,
      "END": 1694,
      "lat": 1695,
      "gram": 1696,
      "ook": 1697,
      "Buffer": 1698,
      "From": 1699,
      "Service": 1700,
      "Ġcontext": 1701,
      "74": 1702,
      "request": 1703,
      "ĠANY": 1704,
      "afe": 1705,
      "(_": 1706,
      "Form": 1707,
      "Ġmode": 1708,
      "ci": 1709,
      "Ġevent": 1710,
      "MODE": 1711,
      "Ġbit": 1712,
      "ody": 1713,
      "Ġ(*": 1714,
      "miss": 1715,
      "Item": 1716,
      "(*": 1717,
      "not": 1718,
      "Str": 1719,
      ",-": 1720,
      "ply": 1721,
      "Ġinline": 1722,
      "QU": 1723,
      "Ġmethod": 1724,
      "ices": 1725,
      "GET": 1726,
      "tin": 1727,
      "ape": 1728,
      "ally": 1729,
      "0000000": 1730,
      "errupt": 1731,
      "CI": 1732,
      "stream": 1733,
      "Ġbuffer": 1734,
      "ifier": 1735,
      "Ġrequire": 1736,
      "cf": 1737,
      "Ġuintptr": 1738,
      "PA": 1739,
      "ible": 1740,
      "ĠĠĠĠĠĠĠĠĠĠĠĠĠĠĠĠĠĠĠĠĠ": 1741,
      "ALL": 1742,
      "si": 1743,
      "DL": 1744,
      "Ġmod": 1745,
      "ĠĠĠĠĠĠĠĠĠĠĠĠĠĠĠĠĠĠĠĠ": 1746,
      "src": 1747,
      "With": 1748,
      "Ġ|=": 1749,
      "pect": 1750,
      "ĠNOT": 1751,
      "RA": 1752,
      "the": 1753,
      "65": 1754,
      "Ġdefined": 1755,
      "Ġsource": 1756,
      "EL": 1757,
      "=>": 1758,
      "Ġother": 1759,
      "43": 1760,
      "ton": 1761,
      "Or": 1762,
      "LOCK": 1763,
      "ĠĠĠĠĠĠĠĠĠĠĠĠĠĠĠĠĠĠ": 1764,
      "null": 1765,
      "ĠReg": 1766,
      "Ġwhich": 1767,
      "ITH": 1768,
      "ĠĉĠĠĠ": 1769,
      "args": 1770,
      "Call": 1771,
      "ailed": 1772,
      "Stream": 1773,
      "ale": 1774,
      "CTION": 1775,
      "ĠPro": 1776,
      "Ġinit": 1777,
      "lose": 1778,
      "PH": 1779,
      "ins": 1780,
      "til": 1781,
      "\"},": 1782,
      "Log": 1783,
      "Client": 1784,
      "pu": 1785,
      "Inter": 1786,
      "Ġfloat": 1787,
      "ĠSystem": 1788,
      "Ġ->": 1789,
      "ops": 1790,
      "api": 1791,
      "mit": 1792,
      "Dis": 1793,
      "Ġone": 1794,
      "Arg": 1795,
      "ner": 1796,
      "vide": 1797,
      "check": 1798,
      "apter": 1799,
      "ia": 1800,
      "100": 1801,
      "Ġsoftware": 1802,
      "enc": 1803,
      "ameters": 1804,
      "57": 1805,
      "uck": 1806,
      "ĠSee": 1807,
      "her": 1808,
      "Ġflags": 1809,
      "lobal": 1810,
      "][": 1811,
      "dir": 1812,
      "TER": 1813,
      "version": 1814,
      "MI": 1815,
      "Property": 1816,
      "lease": 1817,
      "Ġ\"\\": 1818,
      "mut": 1819,
      "69": 1820,
      "nection": 1821,
      "tainer": 1822,
      "');": 1823,
      "Input": 1824,
      "BUG": 1825,
      "ĠDE": 1826,
      "Ġblock": 1827,
      "ta": 1828,
      "ams": 1829,
      "query": 1830,
      "ĠPublic": 1831,
      "dma": 1832,
      "ys": 1833,
      "FO": 1834,
      "ND": 1835,
      "RX": 1836,
      "url": 1837,
      "ower": 1838,
      "Pr": 1839,
      "cord": 1840,
      "SB": 1841,
      "ifdef": 1842,
      "Ġtrans": 1843,
      "Ġdistributed": 1844,
      "\">": 1845,
      "frame": 1846,
      "fe": 1847,
      "page": 1848,
      "\"+": 1849,
      "fore": 1850,
      "Ġoutput": 1851,
      "obj": 1852,
      "Ġproto": 1853,
      "oost": 1854,
      "Ġnum": 1855,
      "Ġbase": 1856,
      "func": 1857,
      "PIN": 1858,
      "View": 1859,
      "OM": 1860,
      "CHAN": 1861,
      "Ġlog": 1862,
      "ĠWAR": 1863,
      "format": 1864,
      "Ptr": 1865,
      "ider": 1866,
      "ET": 1867,
      "),(\"": 1868,
      "ical": 1869,
      "trans": 1870,
      "ature": 1871,
      "ĠĠĠĠĠĠĠĠĠĠĠĠĠĠĠĠĠĠĠĠĠĠĠĠĠĠĠĠ": 1872,
      "rix": 1873,
      "FLA": 1874,
      "Not": 1875,
      "67": 1876,
      "ding": 1877,
      "RES": 1878,
      "float": 1879,
      "ts": 1880,
      "Base": 1881,
      "48": 1882,
      "xC": 1883,
      "ero": 1884,
      "PER": 1885,
      "fc": 1886,
      "On": 1887,
      "New": 1888,
      "Ġjava": 1889,
      "FS": 1890,
      "amp": 1891,
      "current": 1892,
      "du": 1893,
      "json": 1894,
      "formation": 1895,
      "cm": 1896,
      "ĠGNU": 1897,
      "Ġ201": 1898,
      "hod": 1899,
      "ater": 1900,
      "DU": 1901,
      "tot": 1902,
      "arsh": 1903,
      "conn": 1904,
      "97": 1905,
      "lib": 1906,
      "rx": 1907,
      "ĠAR": 1908,
      "olic": 1909,
      "READ": 1910,
      "from": 1911,
      "cast": 1912,
      "over": 1913,
      "\\\\": 1914,
      "ĠGeneral": 1915,
      "cb": 1916,
      "host": 1917,
      "idx": 1918,
      "STATUS": 1919,
      "Ġdefine": 1920,
      "irtual": 1921,
      "WA": 1922,
      "CN": 1923,
      "Model": 1924,
      "ĠReturn": 1925,
      "ative": 1926,
      "xB": 1927,
      "Ġ<=": 1928,
      "Ġmap": 1929,
      "Table": 1930,
      "ĠWARRAN": 1931,
      "ause": 1932,
      "Read": 1933,
      "opt": 1934,
      "Ġuser": 1935,
      "ACK": 1936,
      "ĠST": 1937,
      "wh": 1938,
      "head": 1939,
      "order": 1940,
      "Ġstatus": 1941,
      "INVAL": 1942,
      "raw": 1943,
      "Ġpath": 1944,
      "resent": 1945,
      "Ġ});": 1946,
      "Ġvalues": 1947,
      "ĠSoftware": 1948,
      "ference": 1949,
      "85": 1950,
      "Gener": 1951,
      ">::": 1952,
      "47": 1953,
      "itions": 1954,
      "Be": 1955,
      "Ġdouble": 1956,
      "ql": 1957,
      "Ġsu": 1958,
      "60": 1959,
      "tings": 1960,
      "Le": 1961,
      "Ġdev": 1962,
      "ACE": 1963,
      "lu": 1964,
      "itor": 1965,
      "ĠĠĠĠĠĠĠĠĠĠĠĠĠĠĠĠĠĠĠĠĠĠ": 1966,
      "Ġdesc": 1967,
      "PF": 1968,
      "yn": 1969,
      "ICE": 1970,
      "ML": 1971,
      "FOR": 1972,
      "omain": 1973,
      "TIM": 1974,
      "Ġcount": 1975,
      "iable": 1976,
      "Ġresp": 1977,
      "49": 1978,
      "div": 1979,
      "untime": 1980,
      "ADDR": 1981,
      "Ġpos": 1982,
      "Var": 1983,
      "||": 1984,
      "ollow": 1985,
      "safe": 1986,
      "ITE": 1987,
      "Mode": 1988,
      "params": 1989,
      "Ref": 1990,
      "Ġfirst": 1991,
      "API": 1992,
      "rief": 1993,
      "Trans": 1994,
      "ndef": 1995,
      "Options": 1996,
      "NAME": 1997,
      "ng": 1998,
      "ns": 1999,
      "ĠĠĠĠĠĠĠĠĠĠĠĠĠĠĠĠĠĠĠĠĠĠĠĠĠĠĠĠĠĠĠ": 2000,
      "ome": 2001,
      "oogle": 2002,
      "width": 2003,
      "Ġab": 2004,
      "****************************************************************": 2005,
      "Ġpart": 2006,
      "Pointer": 2007,
      "ustom": 2008,
      "brief": 2009,
      "Ġregister": 2010,
      "ENABLE": 2011,
      "Ġ32": 2012,
      "Version": 2013,
      "Ġelement": 2014,
      "Ġmore": 2015,
      "Write": 2016,
      "Length": 2017,
      "riptor": 2018,
      "Resource": 2019,
      "Ġextern": 2020,
      "ĠTr": 2021,
      "FUN": 2022,
      "Token": 2023,
      "tl": 2024,
      "sl": 2025,
      "Init": 2026,
      "Ġwhile": 2027,
      "Ġwrit": 2028,
      "br": 2029,
      "Ġsk": 2030,
      "IB": 2031,
      "Sub": 2032,
      "UD": 2033,
      "ifndef": 2034,
      "go": 2035,
      "Ġlength": 2036,
      "MEM": 2037,
      "FLAG": 2038,
      "83": 2039,
      "GR": 2040,
      "CB": 2041,
      "ILITY": 2042,
      "Ġnet": 2043,
      "sync": 2044,
      "Manager": 2045,
      "Ġsp": 2046,
      "unk": 2047,
      "45": 2048,
      "ENSE": 2049,
      "BASE": 2050,
      "Format": 2051,
      "Ġright": 2052,
      "ĠTH": 2053,
      "ĉĉĉ": 2054,
      "fl": 2055,
      ")),": 2056,
      "Ġmessage": 2057,
      "sys": 2058,
      "ared": 2059,
      "tag": 2060,
      "Ġline": 2061,
      "42": 2062,
      "ialize": 2063,
      "red": 2064,
      "Ġwithout": 2065,
      "Query": 2066,
      "Override": 2067,
      "Ġrange": 2068,
      "handle": 2069,
      "ĠDe": 2070,
      "46": 2071,
      "ERT": 2072,
      "view": 2073,
      "Block": 2074,
      "\\\"": 2075,
      "OFF": 2076,
      "Ġtable": 2077,
      "ither": 2078,
      "MU": 2079,
      "po": 2080,
      "tected": 2081,
      "cr": 2082,
      "MT": 2083,
      "Ġpackage": 2084,
      "ses": 2085,
      "options": 2086,
      "igh": 2087,
      "81": 2088,
      "Ġwrite": 2089,
      "we": 2090,
      "cache": 2091,
      "FAULT": 2092,
      "Ġpub": 2093,
      "SD": 2094,
      "200": 2095,
      "ived": 2096,
      "End": 2097,
      "ren": 2098,
      "sm": 2099,
      "lan": 2100,
      "rypt": 2101,
      "ĠĠĠĠĠĠĠĠĠĠĠĠĠĠĠĠĠĠĠĠĠĠĠĠĠ": 2102,
      "ox": 2103,
      "gh": 2104,
      "ATION": 2105,
      "PRE": 2106,
      "[\"": 2107,
      "Ġfollow": 2108,
      "Source": 2109,
      "www": 2110,
      "parent": 2111,
      "}}": 2112,
      "ĠWITH": 2113,
      "PAR": 2114,
      "Lo": 2115,
      "User": 2116,
      "ĠErr": 2117,
      "tmp": 2118,
      "ui": 2119,
      "Ġenum": 2120,
      "utton": 2121,
      "Ġgener": 2122,
      "place": 2123,
      "has": 2124,
      "LL": 2125,
      "Ġtarget": 2126,
      "sd": 2127,
      "Ġmm": 2128,
      "defined": 2129,
      "Ġact": 2130,
      "Ġport": 2131,
      "DIT": 2132,
      "Ġcal": 2133,
      "Ġneed": 2134,
      ")))": 2135,
      "Ġinstance": 2136,
      "ormal": 2137,
      "82": 2138,
      "Ġsupport": 2139,
      "ĠMA": 2140,
      "SION": 2141,
      "fr": 2142,
      "olicy": 2143,
      "lp": 2144,
      "Line": 2145,
      "Instance": 2146,
      "++;": 2147,
      "open": 2148,
      "Ġcreate": 2149,
      "/**": 2150,
      "Ġpoint": 2151,
      "Method": 2152,
      "last": 2153,
      "wait": 2154,
      "Ġap": 2155,
      "actory": 2156,
      "box": 2157,
      "ILE": 2158,
      "AND": 2159,
      "ension": 2160,
      "store": 2161,
      "troll": 2162,
      "Start": 2163,
      "cap": 2164,
      "KEY": 2165,
      "ICENSE": 2166,
      "Ġdetail": 2167,
      "LINE": 2168,
      "way": 2169,
      "OC": 2170,
      "Mem": 2171,
      "RT": 2172,
      "update": 2173,
      "Ġag": 2174,
      "DIS": 2175,
      "ASS": 2176,
      "pa": 2177,
      "bool": 2178,
      "ĠRes": 2179,
      "ĠZ": 2180,
      "push": 2181,
      "message": 2182,
      "Ġreturns": 2183,
      "Register": 2184,
      "128": 2185,
      "bytes": 2186,
      "perties": 2187,
      "flow": 2188,
      "App": 2189,
      "Ġwork": 2190,
      "lot": 2191,
      "Ġfree": 2192,
      "ĠRegister": 2193,
      "private": 2194,
      "atrix": 2195,
      "Ġ===": 2196,
      "fter": 2197,
      "Ġnext": 2198,
      "xD": 2199,
      "URE": 2200,
      "Handler": 2201,
      "ĠYou": 2202,
      "EV": 2203,
      "hs": 2204,
      "register": 2205,
      "ync": 2206,
      "model": 2207,
      "CMD": 2208,
      "CA": 2209,
      ",\"": 2210,
      "Point": 2211,
      "adata": 2212,
      "target": 2213,
      "ĠTest": 2214,
      "Ġsw": 2215,
      "ONE": 2216,
      "lication": 2217,
      "refix": 2218,
      "lis": 2219,
      "iven": 2220,
      "output": 2221,
      "pm": 2222,
      "RD": 2223,
      "USE": 2224,
      "xA": 2225,
      "Oper": 2226,
      "Ġter": 2227,
      ")->": 2228,
      "Window": 2229,
      "ĠID": 2230,
      "skb": 2231,
      "Ġac": 2232,
      "ĠCh": 2233,
      "ict": 2234,
      "Ġaddress": 2235,
      "cd": 2236,
      "Util": 2237,
      "Ġlast": 2238,
      "true": 2239,
      "SW": 2240,
      "Ġsrc": 2241,
      "Ġ~": 2242,
      "Ġmodule": 2243,
      "debug": 2244,
      "Ġboolean": 2245,
      "System": 2246,
      "copy": 2247,
      "Ġtext": 2248,
      "Ġvalid": 2249,
      "OF": 2250,
      "Ġinterface": 2251,
      "CTL": 2252,
      "EE": 2253,
      "ORD": 2254,
      "Ġ;": 2255,
      "_,": 2256,
      "Ġwas": 2257,
      "ateg": 2258,
      "Ġauto": 2259,
      "Ġrece": 2260,
      "orage": 2261,
      "spec": 2262,
      "angu": 2263,
      "79": 2264,
      "ĠNone": 2265,
      "Ġmin": 2266,
      "hema": 2267,
      "vector": 2268,
      "lem": 2269,
      "PT": 2270,
      "Action": 2271,
      "Create": 2272,
      "da": 2273,
      "(__": 2274,
      "75": 2275,
      "element": 2276,
      "DEBUG": 2277,
      "<<": 2278,
      "ized": 2279,
      "Color": 2280,
      "ĠĠĠĠĠĠĠĠĠĠĠĠĠĠĠĠĠĠĠĠĠĠĠĠĠĠĠĠĠĠĠĠĠĠĠĠĠĠĠĠĠĠĠĠĠĠĠĠĠĠĠĠĠĠĠĠĠĠĠĠĠĠĠĠ": 2281,
      "63": 2282,
      "Output": 2283,
      "troller": 2284,
      "Ġlet": 2285,
      "sb": 2286,
      "Ġ\"\"\"": 2287,
      "append": 2288,
      "ctrl": 2289,
      "itle": 2290,
      "arshal": 2291,
      "Ġbyte": 2292,
      "Ġformat": 2293,
      "INFO": 2294,
      "Ġtry": 2295,
      "dm": 2296,
      "expected": 2297,
      "Ġbytes": 2298,
      "ĠList": 2299,
      "fn": 2300,
      "tinue": 2301,
      "ABILITY": 2302,
      "nown": 2303,
      "CONFIG": 2304,
      "mod": 2305,
      "module": 2306,
      "gl": 2307,
      "SEL": 2308,
      "parse": 2309,
      "----------------------------------------------------------------": 2310,
      "Ġmake": 2311,
      "CHE": 2312,
      "TIME": 2313,
      "68": 2314,
      "{\"": 2315,
      "Ġ++": 2316,
      "ender": 2317,
      "ĠĠĠĠĠĠĠĠĠĠĠĠĠĠĠĠĠĠĠĠĠĠĠĠĠĠ": 2318,
      "Function": 2319,
      "Default": 2320,
      "coder": 2321,
      "pression": 2322,
      "OK": 2323,
      "VI": 2324,
      "BO": 2325,
      "Ġ200": 2326,
      "Ġimplement": 2327,
      "00000": 2328,
      "===": 2329,
      "IND": 2330,
      "location": 2331,
      "SL": 2332,
      "channel": 2333,
      "70": 2334,
      "mbol": 2335,
      "Ġprovide": 2336,
      "256": 2337,
      "temp": 2338,
      "ends": 2339,
      "Ġhandle": 2340,
      "Ġtmp": 2341,
      "anc": 2342,
      "Tag": 2343,
      "leg": 2344,
      "ctl": 2345,
      "////////////////////////////////////////////////////////////////": 2346,
      "rate": 2347,
      "Number": 2348,
      "switch": 2349,
      "GPIO": 2350,
      "remove": 2351,
      "ank": 2352,
      "raph": 2353,
      "Sp": 2354,
      "201": 2355,
      "ĠFOR": 2356,
      "Ġav": 2357,
      "Ġbuf": 2358,
      "Ġeither": 2359,
      "mutex": 2360,
      "MAP": 2361,
      "Builder": 2362,
      "auth": 2363,
      "uid": 2364,
      ">>": 2365,
      "Ġmatch": 2366,
      "uper": 2367,
      "VM": 2368,
      "Per": 2369,
      "90": 2370,
      "ĀĀ": 2371,
      "Ġinclude": 2372,
      "child": 2373,
      "Ġprogram": 2374,
      "ures": 2375,
      "Ġref": 2376,
      "Attribute": 2377,
      "STATE": 2378,
      "Ġcontain": 2379,
      "match": 2380,
      "ification": 2381,
      "61": 2382,
      "anguage": 2383,
      "ility": 2384,
      "vis": 2385,
      "CD": 2386,
      "Access": 2387,
      "Te": 2388,
      "78": 2389,
      "ĠTHIS": 2390,
      "Offset": 2391,
      "LEN": 2392,
      "Ġclient": 2393,
      "Range": 2394,
      "Image": 2395,
      "Ġfollowing": 2396,
      "41": 2397,
      "ocket": 2398,
      "FFFF": 2399,
      "Ġ{@": 2400,
      "72": 2401,
      "duct": 2402,
      "Msk": 2403,
      "Ġreser": 2404,
      "Ġinfo": 2405,
      "ssert": 2406,
      "Ġinformation": 2407,
      "MM": 2408,
      "annot": 2409,
      "chip": 2410,
      "\";})": 2411,
      "(),(": 2412,
      "The": 2413,
      "95": 2414,
      "Ġhi": 2415,
      "bits": 2416,
      "cre": 2417,
      "\";})(),(": 2418,
      "riter": 2419,
      "mac": 2420,
      "hash": 2421,
      "ailable": 2422,
      "Ġoptions": 2423,
      "ĠEn": 2424,
      "FE": 2425,
      "Ġ_,": 2426,
      "filter": 2427,
      "ments": 2428,
      "ĠAll": 2429,
      "Ġrequired": 2430,
      "ending": 2431,
      "Handle": 2432,
      "rib": 2433,
      "Ġio": 2434,
      "Check": 2435,
      "mark": 2436,
      "header": 2437,
      "tra": 2438,
      "MAT": 2439,
      "Ro": 2440,
      "unlock": 2441,
      "CP": 2442,
      "Ġrun": 2443,
      "msemse": 2444,
      "vider": 2445,
      "MD": 2446,
      "FR": 2447,
      "THER": 2448,
      "Ġinto": 2449,
      "enu": 2450,
      "Null": 2451,
      "ingle": 2452,
      "Ġoption": 2453,
      "Filter": 2454,
      "Ed": 2455,
      "Ġgiven": 2456,
      "Frame": 2457,
      "phy": 2458,
      "Max": 2459,
      "ĠWITHOUT": 2460,
      "ĠĠĠĠĊ": 2461,
      "bt": 2462,
      "\"+\"": 2463,
      "REQ": 2464,
      "ĠHAL": 2465,
      "hdr": 2466,
      "53": 2467,
      "Ġresponse": 2468,
      "Ġop": 2469,
      "########": 2470,
      "Ġprint": 2471,
      "cfg": 2472,
      "ade": 2473,
      "Ġdoes": 2474,
      "{}": 2475,
      "apache": 2476,
      "az": 2477,
      "Ġ{}": 2478,
      "hes": 2479,
      "Char": 2480,
      "ĠAdd": 2481,
      "level": 2482,
      "stant": 2483,
      "52": 2484,
      "96": 2485,
      "bus": 2486,
      "No": 2487,
      "TP": 2488,
      "///": 2489,
      "Address": 2490,
      "off": 2491,
      "ssion": 2492,
      "ecut": 2493,
      "first": 2494,
      "present": 2495,
      "OS": 2496,
      "unit": 2497,
      "TEST": 2498,
      "ĠDMA": 2499,
      "ensor": 2500,
      "76": 2501,
      "less": 2502,
      "Ġresource": 2503,
      "long": 2504,
      "NULL": 2505,
      "Ġgroup": 2506,
      "],[": 2507,
      "dest": 2508,
      "As": 2509,
      "wo": 2510,
      "Ġent": 2511,
      "Ġnon": 2512,
      "Ġitem": 2513,
      "SON": 2514,
      "Spec": 2515,
      "inary": 2516,
      "rq": 2517,
      "rows": 2518,
      "\":\"": 2519,
      "Ġpointer": 2520,
      "regs": 2521,
      "cope": 2522,
      "pio": 2523,
      "ĠTO": 2524,
      "Content": 2525,
      "Ġreserved": 2526,
      "ĠLL": 2527,
      "ten": 2528,
      "Ġpage": 2529,
      "lice": 2530,
      "800": 2531,
      "Num": 2532,
      "Act": 2533,
      "aint": 2534,
      "Ġmsg": 2535,
      "ating": 2536,
      "\"`": 2537,
      "spin": 2538,
      "CS": 2539,
      "Header": 2540,
      "FP": 2541,
      "any": 2542,
      "false": 2543,
      "ĠComp": 2544,
      "Ġsign": 2545,
      "oundation": 2546,
      "Ġcond": 2547,
      "adapter": 2548,
      "Ġspecific": 2549,
      "lied": 2550,
      "uments": 2551,
      "802": 2552,
      "enable": 2553,
      "COMP": 2554,
      "see": 2555,
      "Ġexpected": 2556,
      "Ġlimit": 2557,
      "Ġsyscall": 2558,
      "sa": 2559,
      "pk": 2560,
      "BE": 2561,
      "CFG": 2562,
      "Ġ12": 2563,
      "card": 2564,
      "ntity": 2565,
      "ernel": 2566,
      "ultip": 2567,
      "iff": 2568,
      "58": 2569,
      "1000": 2570,
      "0001": 2571,
      "control": 2572,
      "Ġob": 2573,
      "Update": 2574,
      "EP": 2575,
      "ful": 2576,
      "Ġcommand": 2577,
      "Ġ],": 2578,
      "ĠFor": 2579,
      "ĠDO": 2580,
      "Ġfail": 2581,
      "94": 2582,
      "Date": 2583,
      "MENT": 2584,
      "SIG": 2585,
      "ĠFree": 2586,
      "../": 2587,
      "ixel": 2588,
      "Ġev": 2589,
      "BL": 2590,
      "Ġimplied": 2591,
      "Nd": 2592,
      "Vector": 2593,
      "source": 2594,
      "equal": 2595,
      "CODE": 2596,
      "Ġ--": 2597,
      "}},": 2598,
      "typename": 2599,
      "Ġcre": 2600,
      "ĠObject": 2601,
      "PD": 2602,
      "WN": 2603,
      "Entry": 2604,
      "top": 2605,
      "And": 2606,
      "NEL": 2607,
      "Ġentry": 2608,
      "udio": 2609,
      "Ġ()": 2610,
      "='": 2611,
      "ixed": 2612,
      "ACT": 2613,
      "ATTR": 2614,
      "Op": 2615,
      "tributes": 2616,
      "TRY": 2617,
      "Ġmemory": 2618,
      "TIES": 2619,
      "reen": 2620,
      "Lay": 2621,
      "ĠFoundation": 2622,
      "Ġlib": 2623,
      "dst": 2624,
      "find": 2625,
      "ĠRE": 2626,
      "method": 2627,
      "td": 2628,
      "pth": 2629,
      "xy": 2630,
      "Ġframe": 2631,
      "cal": 2632,
      "73": 2633,
      "icro": 2634,
      "IGHT": 2635,
      "Ġgl": 2636,
      "!!!!": 2637,
      "ternal": 2638,
      "driver": 2639,
      "label": 2640,
      "51": 2641,
      "LOG": 2642,
      "resh": 2643,
      "olume": 2644,
      "Ġspecified": 2645,
      "\"))": 2646,
      "Ġargs": 2647,
      "double": 2648,
      "Ġits": 2649,
      "run": 2650,
      "attern": 2651,
      "ĠInt": 2652,
      "round": 2653,
      "xffffff": 2654,
      "ĠGPIO": 2655,
      "Ġback": 2656,
      "Ġprocess": 2657,
      "oin": 2658,
      "Level": 2659,
      "Component": 2660,
      "Ġthen": 2661,
      "ources": 2662,
      "FB": 2663,
      "internal": 2664,
      "quence": 2665,
      "Ag": 2666,
      "Ident": 2667,
      "Device": 2668,
      "Ġ::": 2669,
      "common": 2670,
      "doc": 2671,
      "Ġmask": 2672,
      "ĠPRO": 2673,
      "NdEx": 2674,
      "LOW": 2675,
      "expr": 2676,
      "ĠAPI": 2677,
      "\"]": 2678,
      "license": 2679,
      "ĠReturns": 2680,
      "ĠWARRANTIES": 2681,
      "ba": 2682,
      "resource": 2683,
      "Ġprotected": 2684,
      "lected": 2685,
      "Interface": 2686,
      "DA": 2687,
      "MAC": 2688,
      "Ġlicense": 2689,
      "Ġstream": 2690,
      "ĠCl": 2691,
      "Ġ'\\": 2692,
      "root": 2693,
      "ward": 2694,
      "(!": 2695,
      "tract": 2696,
      "62": 2697,
      "Ġexp": 2698,
      "All": 2699,
      "ĠTIM": 2700,
      "anged": 2701,
      "ĠSh": 2702,
      "bi": 2703,
      "token": 2704,
      "rary": 2705,
      "ĠSe": 2706,
      "Ġchannel": 2707,
      "0123456789012345678901234567890123456789": 2708,
      "____": 2709,
      "Command": 2710,
      "ĠAl": 2711,
      "down": 2712,
      "den": 2713,
      "lector": 2714,
      "Pack": 2715,
      "Valid": 2716,
      "Ġpermiss": 2717,
      "ĠAT": 2718,
      "ready": 2719,
      "irectory": 2720,
      "Ġfound": 2721,
      "Ġph": 2722,
      "Ġbits": 2723,
      "oll": 2724,
      "idget": 2725,
      "fuck": 2726,
      "totype": 2727,
      "struction": 2728,
      "gn": 2729,
      "Ġtag": 2730,
      "({": 2731,
      "color": 2732,
      "98": 2733,
      "Ġafter": 2734,
      "google": 2735,
      "91": 2736,
      "my": 2737,
      "INTER": 2738,
      "OD": 2739,
      "LOC": 2740,
      "ĠSO": 2741,
      "main": 2742,
      "igger": 2743,
      "Equals": 2744,
      "Sy": 2745,
      "DEVICE": 2746,
      "oper": 2747,
      "Pre": 2748,
      "Ġgr": 2749,
      "Ġlocal": 2750,
      "NOT": 2751,
      "pdev": 2752,
      ".,": 2753,
      "left": 2754,
      "Ġcur": 2755,
      "License": 2756,
      "DULE": 2757,
      "PHY": 2758,
      "vo": 2759,
      "image": 2760,
      "ĠDef": 2761,
      "exp": 2762,
      "fmt": 2763,
      "Ġfmt": 2764,
      "ĠBY": 2765,
      "93": 2766,
      "gener": 2767,
      "ENER": 2768,
      "number": 2769,
      "92": 2770,
      "ĠWe": 2771,
      "aaaa": 2772,
      "coding": 2773,
      "ports": 2774,
      "_(": 2775,
      "imum": 2776,
      "Configuration": 2777,
      "Style": 2778,
      "fp": 2779,
      "ENO": 2780,
      "ines": 2781,
      "Factory": 2782,
      "mote": 2783,
      "MSG": 2784,
      "Target": 2785,
      "BY": 2786,
      "content": 2787,
      "andom": 2788,
      "ĠPar": 2789,
      "fin": 2790,
      "ĠUSB": 2791,
      "Ġthrows": 2792,
      "bar": 2793,
      "71": 2794,
      "Ġopt": 2795,
      "Ġcor": 2796,
      "Ġ64": 2797,
      "begin": 2798,
      "Ġ/**<": 2799,
      "Ġiter": 2800,
      "Ġar": 2801,
      "IX": 2802,
      "mi": 2803,
      "PUT": 2804,
      "Row": 2805,
      "usb": 2806,
      "cv": 2807,
      "Ext": 2808,
      "inition": 2809,
      "KER": 2810,
      "sec": 2811,
      "Ġinternal": 2812,
      "Hel": 2813,
      "PECT": 2814,
      "FN": 2815,
      "apt": 2816,
      "imp": 2817,
      "Ġ15": 2818,
      "AGE": 2819,
      "types": 2820,
      "soft": 2821,
      "FL": 2822,
      "Width": 2823,
      "ĠAND": 2824,
      "ĠFILE": 2825,
      "************************************************************************": 2826,
      "Server": 2827,
      "response": 2828,
      "EC": 2829,
      "Ġover": 2830,
      "COUN": 2831,
      "wr": 2832,
      "Ġinterrupt": 2833,
      "ring": 2834,
      "Ġparameter": 2835,
      "send": 2836,
      "gine": 2837,
      "arning": 2838,
      "server": 2839,
      "Ġoverride": 2840,
      "Ġthere": 2841,
      "ĠSH": 2842,
      "dic": 2843,
      "Ġhere": 2844,
      "TION": 2845,
      "]=": 2846,
      "thread": 2847,
      "``": 2848,
      "EQ": 2849,
      "Ġallow": 2850,
      "post": 2851,
      "fb": 2852,
      "roll": 2853,
      "ump": 2854,
      "Ġbefore": 2855,
      "address": 2856,
      "boost": 2857,
      "ince": 2858,
      "EM": 2859,
      "SER": 2860,
      "ca": 2861,
      "Ġterms": 2862,
      "chan": 2863,
      "rect": 2864,
      "Ġdocument": 2865,
      "Ġupdate": 2866,
      "\",\"\"+\"": 2867,
      "sn": 2868,
      "ority": 2869,
      "FILE": 2870,
      "teger": 2871,
      "omic": 2872,
      "ĠVersion": 2873,
      "Cache": 2874,
      "ron": 2875,
      "ĠAp": 2876,
      "ĠCheck": 2877,
      "Ġheader": 2878,
      "Ġvirtual": 2879,
      "PM": 2880,
      "UB": 2881,
      "ATED": 2882,
      "Iter": 2883,
      "Ġ20": 2884,
      "reset": 2885,
      "layer": 2886,
      "ĠĉĠ": 2887,
      "pci": 2888,
      "MIN": 2889,
      "Ġalloc": 2890,
      "*)": 2891,
      "VALUE": 2892,
      "ONG": 2893,
      "stats": 2894,
      "Ġ...": 2895,
      "OFFSET": 2896,
      "cnt": 2897,
      "True": 2898,
      "Column": 2899,
      "Callback": 2900,
      "gen": 2901,
      "Ġorder": 2902,
      "INIT": 2903,
      "height": 2904,
      "Ġinst": 2905,
      "Ġsnd": 2906,
      "style": 2907,
      "IRQ": 2908,
      "Ġrights": 2909,
      "AtA": 2910,
      "Params": 2911,
      "empty": 2912,
      "Ġsame": 2913,
      "....": 2914,
      "Task": 2915,
      "ĠAn": 2916,
      "seq": 2917,
      "Invalid": 2918,
      "process": 2919,
      "ansp": 2920,
      "tree": 2921,
      "LINK": 2922,
      ")]": 2923,
      "Ġshift": 2924,
      "Ġparent": 2925,
      "refer": 2926,
      "RC": 2927,
      "sr": 2928,
      "env": 2929,
      "rop": 2930,
      "ĠĉĉĠĠĠ": 2931,
      "Ġ\"%": 2932,
      "php": 2933,
      "range": 2934,
      "Location": 2935,
      "Ġ($": 2936,
      "Parameter": 2937,
      "ithub": 2938,
      "Option": 2939,
      "INE": 2940,
      "static": 2941,
      "ular": 2942,
      "Ġed": 2943,
      "\"));": 2944,
      "Ġprovided": 2945,
      "df": 2946,
      "Ġaccess": 2947,
      "Label": 2948,
      "Ġeach": 2949,
      "ilename": 2950,
      "older": 2951,
      "Ġctx": 2952,
      "Ġmodify": 2953,
      "sor": 2954,
      "asic": 2955,
      "Box": 2956,
      "lex": 2957,
      "Min": 2958,
      "WARE": 2959,
      "Ġcallback": 2960,
      "resp": 2961,
      "ĠType": 2962,
      "Types": 2963,
      "Ġcache": 2964,
      "gress": 2965,
      "apping": 2966,
      "ious": 2967,
      "WRITE": 2968,
      "ENTRY": 2969,
      "MAND": 2970,
      "Ġexcept": 2971,
      "cent": 2972,
      "Flags": 2973,
      "_.": 2974,
      "bs": 2975,
      "Control": 2976,
      "option": 2977,
      "Child": 2978,
      "DEFAULT": 2979,
      "clear": 2980,
      "Ġcalled": 2981,
      "COL": 2982,
      "ffect": 2983,
      "ds": 2984,
      "Ġfailed": 2985,
      "ĠInc": 2986,
      "ization": 2987,
      "Ġco": 2988,
      "instance": 2989,
      "RAY": 2990,
      "Ġcpu": 2991,
      "Ġexpect": 2992,
      "DEF": 2993,
      "other": 2994,
      "LIST": 2995,
      "Sign": 2996,
      "Ġpacket": 2997,
      "DM": 2998,
      "Su": 2999,
      "ulti": 3000,
      "FC": 3001,
      "Ġtoken": 3002,
      "Page": 3003,
      "active": 3004,
      "NC": 3005,
      "ĠData": 3006,
      "Ġsome": 3007,
      "Case": 3008,
      "Ġ11": 3009,
      "task": 3010,
      "alar": 3011,
      "close": 3012,
      "Ġextends": 3013,
      "prototype": 3014,
      "={": 3015,
      "Ġthan": 3016,
      "ied": 3017,
      "pha": 3018,
      "EINVAL": 3019,
      "Ġfilter": 3020,
      "Ġ(\"": 3021,
      "with": 3022,
      "AG": 3023,
      "Collection": 3024,
      "wise": 3025,
      "ĠCHE": 3026,
      "Ġcatch": 3027,
      "NT": 3028,
      "MPL": 3029,
      "used": 3030,
      "Ġlevel": 3031,
      "SUPP": 3032,
      "'),": 3033,
      "Co": 3034,
      "OB": 3035,
      "NESS": 3036,
      "Ġaddr": 3037,
      ".</": 3038,
      "otal": 3039,
      "Bytes": 3040,
      "ĠĠĊ": 3041,
      "_;": 3042,
      "ipe": 3043,
      "ev": 3044,
      "ĠCHECK": 3045,
      "atab": 3046,
      "Bit": 3047,
      "gt": 3048,
      "iginal": 3049,
      "itional": 3050,
      "ries": 3051,
      "Part": 3052,
      "HAL": 3053,
      "This": 3054,
      "iterator": 3055,
      "ynam": 3056,
      "su": 3057,
      "Enum": 3058,
      "Net": 3059,
      "js": 3060,
      "structor": 3061,
      "tach": 3062,
      "Ġobj": 3063,
      "ULAR": 3064,
      "Ġrc": 3065,
      "del": 3066,
      "IMIT": 3067,
      "START": 3068,
      "mail": 3069,
      "html": 3070,
      "aces": 3071,
      "PLL": 3072,
      "only": 3073,
      "inding": 3074,
      "air": 3075,
      "FD": 3076,
      "ĠEV": 3077,
      "ists": 3078,
      "~~": 3079,
      "ĠCONFIG": 3080,
      "Rule": 3081,
      "Param": 3082,
      "IVE": 3083,
      "roid": 3084,
      "ĠĠĠĠĠĠĠĠĠĠĠĠĠĠĠĠĠĠĠĠĠĠĠĠĠĠĠĠĠĊ": 3085,
      "Button": 3086,
      "Ġred": 3087,
      "erge": 3088,
      "peed": 3089,
      "cle": 3090,
      "POSE": 3091,
      "cpy": 3092,
      "ĠLI": 3093,
      "Ġfn": 3094,
      "ted": 3095,
      "TEXT": 3096,
      "Ġmodel": 3097,
      "Addr": 3098,
      ">,": 3099,
      "stamp": 3100,
      "\").": 3101,
      "inode": 3102,
      "Run": 3103,
      "ĠIt": 3104,
      "Ġcontent": 3105,
      "ĠFile": 3106,
      "ĠPCI": 3107,
      "roy": 3108,
      "cmp": 3109,
      "ĠBy": 3110,
      "Entity": 3111,
      "ĠFIT": 3112,
      "Ġimage": 3113,
      "part": 3114,
      "Ġbo": 3115,
      "body": 3116,
      "ĠPART": 3117,
      "ĠĠĠĠĠĠĠĠĠĠĠĠĠĠĠĠĠĠĠĠĠĠĠĠĠĠĠĠĠ": 3118,
      "ĠFT": 3119,
      "ĠMER": 3120,
      "latform": 3121,
      "ĠCreate": 3122,
      "CAP": 3123,
      "?:": 3124,
      "TROL": 3125,
      "enum": 3126,
      "LICENSE": 3127,
      "Ġoperator": 3128,
      "ĠRCC": 3129,
      "ĠMC": 3130,
      "ADD": 3131,
      "handler": 3132,
      "URPOSE": 3133,
      "Ġ]": 3134,
      "oci": 3135,
      "Ac": 3136,
      "Ġobtain": 3137,
      "medi": 3138,
      "CHANT": 3139,
      "github": 3140,
      "USB": 3141,
      "Ġsee": 3142,
      "ĠCOM": 3143,
      "NUM": 3144,
      "xml": 3145,
      "ĠFITNESS": 3146,
      "thing": 3147,
      "ches": 3148,
      "OLD": 3149,
      "Sec": 3150,
      "vec": 3151,
      "ARD": 3152,
      "Ġclock": 3153,
      "Back": 3154,
      "CHANTABILITY": 3155,
      "bove": 3156,
      "UM": 3157,
      "ose": 3158,
      "Ġold": 3159,
      "ĠSer": 3160,
      "Ġflag": 3161,
      "Link": 3162,
      "irection": 3163,
      "Ġok": 3164,
      "Ġ24": 3165,
      "ĠError": 3166,
      "Process": 3167,
      "80211": 3168,
      "Ġtemp": 3169,
      "ĠMERCHANTABILITY": 3170,
      "ities": 3171,
      "Module": 3172,
      "ĠADC": 3173,
      "Do": 3174,
      "ĠPURPOSE": 3175,
      "IV": 3176,
      "ommon": 3177,
      "acter": 3178,
      "command": 3179,
      "Ġdest": 3180,
      "ãģ": 3181,
      "ster": 3182,
      "atabase": 3183,
      "usion": 3184,
      "()->": 3185,
      "comple": 3186,
      "gpio": 3187,
      "Ġcontrol": 3188,
      "atal": 3189,
      "Ġempty": 3190,
      "AF": 3191,
      "licenses": 3192,
      "Ġoperation": 3193,
      "Copy": 3194,
      "ĠRed": 3195,
      "Ġyour": 3196,
      "ĠPARTIC": 3197,
      "0008": 3198,
      "Hash": 3199,
      "ĠĠĠĠĠĠĠĠĠĠĠĠĠĠĠĠĠĠĠĠĠĠĠĠĠĠĠĠĠĠĠĠĠĠĠ": 3200,
      "WORD": 3201,
      "sv": 3202,
      "ĠPARTICULAR": 3203,
      "ribe": 3204,
      "ounter": 3205,
      "Ġ&=": 3206,
      "sizeof": 3207,
      "ĠIO": 3208,
      "PS": 3209,
      "CNTL": 3210,
      "Byte": 3211,
      "xffff": 3212,
      "Ġdetails": 3213,
      "CHECK": 3214,
      "ipher": 3215,
      "build": 3216,
      "Ġvector": 3217,
      "Ġwindow": 3218,
      "Next": 3219,
      "dc": 3220,
      "ĠEXPECT": 3221,
      "ä¸": 3222,
      "Ġserver": 3223,
      "writ": 3224,
      "Ġlink": 3225,
      "anges": 3226,
      "GB": 3227,
      "Auth": 3228,
      "Channel": 3229,
      "Mod": 3230,
      "Ġbeen": 3231,
      "ways": 3232,
      "Ġavailable": 3233,
      "ely": 3234,
      "gment": 3235,
      "Ġabove": 3236,
      "region": 3237,
      "LAN": 3238,
      "EVENT": 3239,
      "Provider": 3240,
      "timer": 3241,
      "Ġpass": 3242,
      "TABLE": 3243,
      "Proto": 3244,
      "Ġswitch": 3245,
      "ĠREG": 3246,
      "ELD": 3247,
      "Ġload": 3248,
      "items": 3249,
      "None": 3250,
      "Ġ14": 3251,
      "Ġpublis": 3252,
      "imple": 3253,
      "ique": 3254,
      "ROM": 3255,
      "================================================================": 3256,
      "crypt": 3257,
      "iler": 3258,
      "Ġpl": 3259,
      "ALSE": 3260,
      "Ġthread": 3261,
      "Ġshort": 3262,
      "conf": 3263,
      "ynamic": 3264,
      "ency": 3265,
      "ws": 3266,
      "ĠBlock": 3267,
      "Ġenable": 3268,
      "ĠBu": 3269,
      "Gr": 3270,
      "angle": 3271,
      "ĠApache": 3272,
      "Ġdst": 3273,
      "Empty": 3274,
      "Descriptor": 3275,
      "Ġstore": 3276,
      "TS": 3277,
      "IE": 3278,
      "SIS": 3279,
      "Ġreturned": 3280,
      "FTWARE": 3281,
      "Ġproperty": 3282,
      "Ġhash": 3283,
      "&&(": 3284,
      "ĠTR": 3285,
      "ayload": 3286,
      "support": 3287,
      "RCC": 3288,
      "DP": 3289,
      "Ġwidth": 3290,
      "hpp": 3291,
      "Match": 3292,
      "shape": 3293,
      "auto": 3294,
      "andard": 3295,
      "Ġ*,": 3296,
      "(\"%": 3297,
      "uster": 3298,
      "property": 3299,
      "Listener": 3300,
      "ĠĠĠĠĠĠĠĠĠĠĠĠĠĠĠĠĠĠĠĠĠĠĠĠĠĠĠĠĠĠ": 3301,
      "ĠOn": 3302,
      "Ġlock": 3303,
      "Ġrepresent": 3304,
      "sert": 3305,
      "Ġconfiguration": 3306,
      "MAGE": 3307,
      "Ġeven": 3308,
      "ĠEDIT": 3309,
      "stack": 3310,
      "bb": 3311,
      "Ġsystem": 3312,
      "domain": 3313,
      "interface": 3314,
      "CONTROL": 3315,
      "Ġ{\"": 3316,
      "asm": 3317,
      "buff": 3318,
      "tt": 3319,
      "ĠValue": 3320,
      "ĠArray": 3321,
      "]]": 3322,
      "Ġsuper": 3323,
      "mon": 3324,
      "Ġ//!": 3325,
      "ategory": 3326,
      "Port": 3327,
      "Errno": 3328,
      "aph": 3329,
      "VERSION": 3330,
      "unsafe": 3331,
      "dp": 3332,
      "ov": 3333,
      "ping": 3334,
      "Ġcmd": 3335,
      "Ġsuccess": 3336,
      "ped": 3337,
      "impl": 3338,
      "Ġtask": 3339,
      "window": 3340,
      "Ġfe": 3341,
      "known": 3342,
      "Ġappend": 3343,
      "Ġhost": 3344,
      "loud": 3345,
      "mc": 3346,
      "actor": 3347,
      "ialog": 3348,
      "Ġparameters": 3349,
      "Ġdriver": 3350,
      "Ġconditions": 3351,
      "Ġfind": 3352,
      "flag": 3353,
      "LAY": 3354,
      "Ġ),": 3355,
      "ove": 3356,
      "ĠSOFTWARE": 3357,
      "drv": 3358,
      "ĠMO": 3359,
      "Policy": 3360,
      "met": 3361,
      "Ġcopyright": 3362,
      "fa": 3363,
      "lang": 3364,
      "><": 3365,
      "connect": 3366,
      "ĠOr": 3367,
      "ARE": 3368,
      "Position": 3369,
      "SCR": 3370,
      "vol": 3371,
      "------------": 3372,
      "Current": 3373,
      "eger": 3374,
      "iod": 3375,
      "ĠSy": 3376,
      "system": 3377,
      "very": 3378,
      "bd": 3379,
      "ination": 3380,
      "uple": 3381,
      "URL": 3382,
      "nect": 3383,
      "dbg": 3384,
      "ialized": 3385,
      "ĠTE": 3386,
      "QL": 3387,
      "tore": 3388,
      "ĠWM": 3389,
      "access": 3390,
      "select": 3391,
      "attribute": 3392,
      "dAtA": 3393,
      "cor": 3394,
      "Ġ-=": 3395,
      "Ġqu": 3396,
      "PTR": 3397,
      "rag": 3398,
      "Func": 3399,
      "Struct": 3400,
      "Kind": 3401,
      "IST": 3402,
      "Ġstructure": 3403,
      "Ġreceived": 3404,
      "Ġexport": 3405,
      "stop": 3406,
      "Ġwhere": 3407,
      "packet": 3408,
      "ĠNew": 3409,
      "ASSERT": 3410,
      "Ġlanguage": 3411,
      "Ġcolumn": 3412,
      "Ġrow": 3413,
      "Ġvariable": 3414,
      "Ġfuck": 3415,
      "ARG": 3416,
      "exception": 3417,
      "rel": 3418,
      "DED": 3419,
      "400": 3420,
      "Ġprev": 3421,
      "ADER": 3422,
      "licit": 3423,
      "retval": 3424,
      "ĠDis": 3425,
      "Ġlabel": 3426,
      "Ġtypes": 3427,
      "Ġroot": 3428,
      "ĠLO": 3429,
      "achine": 3430,
      "UX": 3431,
      "URCE": 3432,
      "bp": 3433,
      "RIGHT": 3434,
      "iction": 3435,
      "ĠIP": 3436,
      "Local": 3437,
      "Impl": 3438,
      "Ġ(_": 3439,
      "wn": 3440,
      "Ġfunctions": 3441,
      ")));": 3442,
      "change": 3443,
      "cket": 3444,
      "show": 3445,
      "Json": 3446,
      "values": 3447,
      "377": 3448,
      "Ġ100": 3449,
      "Vis": 3450,
      "NS": 3451,
      "\".": 3452,
      "oss": 3453,
      "UI": 3454,
      "Ġchild": 3455,
      "returns": 3456,
      "while": 3457,
      "ane": 3458,
      "Thread": 3459,
      "([": 3460,
      "ĠNO": 3461,
      "ln": 3462,
      "},{": 3463,
      "Msg": 3464,
      "Ġerrno": 3465,
      "Ġim": 3466,
      "(-": 3467,
      "Debug": 3468,
      "DS": 3469,
      "Ġel": 3470,
      "Height": 3471,
      "Ġwriting": 3472,
      "np": 3473,
      "save": 3474,
      "ecute": 3475,
      "Ġgover": 3476,
      "Float": 3477,
      "tc": 3478,
      "Ġbet": 3479,
      "Ġreset": 3480,
      "ĠTo": 3481,
      "NG": 3482,
      "ignore": 3483,
      "Ġ',": 3484,
      "ĠINT": 3485,
      "component": 3486,
      "Container": 3487,
      "hether": 3488,
      ")}": 3489,
      "can": 3490,
      "Ġservice": 3491,
      "ead": 3492,
      "=%": 3493,
      ".*": 3494,
      "Det": 3495,
      "disable": 3496,
      "aver": 3497,
      "Stack": 3498,
      "Return": 3499,
      "Ġboost": 3500,
      "pool": 3501,
      "lugin": 3502,
      "Lock": 3503,
      "yy": 3504,
      "BUS": 3505,
      "SOURCE": 3506,
      "Ġopen": 3507,
      "Ġacc": 3508,
      "ĠBA": 3509,
      "hi": 3510,
      "erved": 3511,
      "Mask": 3512,
      "WIN": 3513,
      "stract": 3514,
      "AUT": 3515,
      "ĠKIND": 3516,
      "MAR": 3517,
      "Ġparse": 3518,
      "nr": 3519,
      "exit": 3520,
      "__,": 3521,
      "anel": 3522,
      "Ġcolor": 3523,
      "Ġreq": 3524,
      "Ġ\",": 3525,
      "AV": 3526,
      "ĠĉĊ": 3527,
      "ĠGENER": 3528,
      "Ġnotice": 3529,
      "abs": 3530,
      "FUNC": 3531,
      "Settings": 3532,
      "DBG": 3533,
      "fw": 3534,
      "aster": 3535,
      "Ġaction": 3536,
      "dt": 3537,
      "FUNCTION": 3538,
      "Ġposition": 3539,
      "SPE": 3540,
      "patch": 3541,
      "ession": 3542,
      "ĠIs": 3543,
      "vices": 3544,
      "lt": 3545,
      "Utils": 3546,
      "ĠCol": 3547,
      "acle": 3548,
      "ian": 3549,
      "FIL": 3550,
      "conds": 3551,
      "ĠUSE": 3552,
      "Ġident": 3553,
      "delete": 3554,
      "Open": 3555,
      "rtc": 3556,
      "Ġhttps": 3557,
      "RESET": 3558,
      "Dir": 3559,
      "COM": 3560,
      "ah": 3561,
      "ertex": 3562,
      "ĠĠĠĠĠĠĠĠĊ": 3563,
      "pd": 3564,
      "PAT": 3565,
      "Args": 3566,
      "icrosoft": 3567,
      "Ġmet": 3568,
      "iNdEx": 3569,
      "ADC": 3570,
      "./": 3571,
      "fg": 3572,
      "Core": 3573,
      "plat": 3574,
      "lit": 3575,
      "ĠInit": 3576,
      "graph": 3577,
      "Com": 3578,
      "Body": 3579,
      "Connection": 3580,
      "sole": 3581,
      "Ġalready": 3582,
      "limit": 3583,
      "cul": 3584,
      "),(": 3585,
      "ason": 3586,
      "Errorf": 3587,
      "Ġauth": 3588,
      "Values": 3589,
      "Matrix": 3590,
      "MUX": 3591,
      "Ġexpress": 3592,
      "Delete": 3593,
      "now": 3594,
      "ialization": 3595,
      "Identifier": 3596,
      "HW": 3597,
      "board": 3598,
      "Ġquery": 3599,
      "BLOCK": 3600,
      "igned": 3601,
      "tom": 3602,
      "DIV": 3603,
      "ivity": 3604,
      "ĠCOMMAND": 3605,
      "Unit": 3606,
      "protobuf": 3607,
      "require": 3608,
      "ĠOP": 3609,
      "ĠDA": 3610,
      "Reference": 3611,
      "prev": 3612,
      "Ġoff": 3613,
      "Ġ13": 3614,
      "ĠStat": 3615,
      "NV": 3616,
      "UTE": 3617,
      "FIELD": 3618,
      "NONE": 3619,
      "trace": 3620,
      "Cur": 3621,
      "Ġĉĉĉĉĉĉĉĉ": 3622,
      "Ġ['": 3623,
      "ĠTOP": 3624,
      "Ġ^": 3625,
      "Ġapplic": 3626,
      "service": 3627,
      "Record": 3628,
      "Layout": 3629,
      "session": 3630,
      "Operation": 3631,
      "ish": 3632,
      "typeof": 3633,
      "ĠLicensed": 3634,
      "Ġmain": 3635,
      "rapper": 3636,
      "Ar": 3637,
      "ĠRead": 3638,
      "Ġos": 3639,
      "man": 3640,
      "Generated": 3641,
      "SUPPORT": 3642,
      "SPI": 3643,
      "Ġ>::": 3644,
      "Load": 3645,
      "insert": 3646,
      "search": 3647,
      "pg": 3648,
      "ĠWARRANTY": 3649,
      "timeout": 3650,
      "SN": 3651,
      "global": 3652,
      "Ġlow": 3653,
      "Ġparams": 3654,
      "ween": 3655,
      "RECT": 3656,
      "SM": 3657,
      ".$": 3658,
      "Properties": 3659,
      "etch": 3660,
      "straint": 3661,
      "ily": 3662,
      "iag": 3663,
      "COUNT": 3664,
      "reed": 3665,
      "/'": 3666,
      "Ġjson": 3667,
      "SSL": 3668,
      "Exp": 3669,
      "Render": 3670,
      "bc": 3671,
      "NET": 3672,
      "Ð°": 3673,
      "ugh": 3674,
      "Imp": 3675,
      "Ġ{{": 3676,
      "ai": 3677,
      "px": 3678,
      "SG": 3679,
      "ĠGENERATED": 3680,
      "Url": 3681,
      "Ġfields": 3682,
      "LOAD": 3683,
      "ĠAssert": 3684,
      "column": 3685,
      "spi": 3686,
      "Helper": 3687,
      "GA": 3688,
      "Ġleft": 3689,
      "cause": 3690,
      "continue": 3691,
      "Ġzero": 3692,
      "Ġpermissions": 3693,
      "Ġqueue": 3694,
      "final": 3695,
      "detail": 3696,
      "UID": 3697,
      "ear": 3698,
      "Host": 3699,
      "ĠEnable": 3700,
      "sing": 3701,
      "sz": 3702,
      "atures": 3703,
      "Que": 3704,
      "oly": 3705,
      "Order": 3706,
      "aders": 3707,
      "Ġalso": 3708,
      "mission": 3709,
      "CLUD": 3710,
      "Obj": 3711,
      "olve": 3712,
      "CLUDING": 3713,
      "Ġdone": 3714,
      "Reader": 3715,
      "Ap": 3716,
      "ĠIR": 3717,
      "Ġform": 3718,
      "Ġdon": 3719,
      "Document": 3720,
      "():": 3721,
      "inst": 3722,
      "full": 3723,
      "Writer": 3724,
      "ls": 3725,
      "Ġtx": 3726,
      "Ġcomponent": 3727,
      "ignment": 3728,
      "ĠName": 3729,
      "Parameters": 3730,
      "ĠTime": 3731,
      "BUF": 3732,
      "ultiple": 3733,
      "Ġexception": 3734,
      "Tree": 3735,
      "ECT": 3736,
      "Ġredistribut": 3737,
      "callback": 3738,
      "Ġsm": 3739,
      "delay": 3740,
      "Ġuseful": 3741,
      "ĠUse": 3742,
      "Ġ19": 3743,
      "arn": 3744,
      "ĠRTC": 3745,
      "ĠException": 3746,
      "display": 3747,
      "ground": 3748,
      "release": 3749,
      "pop": 3750,
      "Ġwait": 3751,
      "web": 3752,
      "ycle": 3753,
      "ensions": 3754,
      "SYNC": 3755,
      "zero": 3756,
      "icon": 3757,
      "BYTE": 3758,
      "Ġmat": 3759,
      "Change": 3760,
      "Ġgo": 3761,
      "512": 3762,
      "orld": 3763,
      "Ġpublished": 3764,
      "liance": 3765,
      "Ġsend": 3766,
      "Graph": 3767,
      "Ġ'',": 3768,
      "ORY": 3769,
      "eg": 3770,
      "Constant": 3771,
      "CPU": 3772,
      "Ġĉĉĉĉĉĉĉ": 3773,
      "HY": 3774,
      "tool": 3775,
      "IFO": 3776,
      "001": 3777,
      "Fields": 3778,
      "light": 3779,
      "HA": 3780,
      "FW": 3781,
      "Rect": 3782,
      "ĠĉĉĉĠĠĠ": 3783,
      "Ġ})": 3784,
      "****************************************************************************": 3785,
      "Ġip": 3786,
      "Meta": 3787,
      "BR": 3788,
      "txt": 3789,
      "DITION": 3790,
      "clock": 3791,
      "ĠBIT": 3792,
      "Ġwant": 3793,
      "ncy": 3794,
      "izer": 3795,
      "Work": 3796,
      "anch": 3797,
      "LY": 3798,
      "ĠMAX": 3799,
      "ĠPy": 3800,
      "bind": 3801,
      "eth": 3802,
      "ging": 3803,
      "title": 3804,
      "normal": 3805,
      "Ġtwo": 3806,
      "ĠLICENSE": 3807,
      "RF": 3808,
      "Ġaut": 3809,
      "rough": 3810,
      "Ġglobal": 3811,
      "eft": 3812,
      "printk": 3813,
      "INVALID": 3814,
      "AAAA": 3815,
      "replace": 3816,
      ")\\": 3817,
      "ĠLog": 3818,
      "2000": 3819,
      "position": 3820,
      "PAD": 3821,
      "Async": 3822,
      "proc": 3823,
      "Ġvis": 3824,
      "ESS": 3825,
      "gor": 3826,
      "Ġfull": 3827,
      "TLS": 3828,
      "tains": 3829,
      "shift": 3830,
      "MOD": 3831,
      "ouse": 3832,
      "TypeDef": 3833,
      "iant": 3834,
      "Store": 3835,
      ".\\": 3836,
      "Has": 3837,
      "`,": 3838,
      "coun": 3839,
      "Ġfl": 3840,
      "ansport": 3841,
      "ials": 3842,
      "ra": 3843,
      "Fe": 3844,
      "Ġredistribute": 3845,
      "__)": 3846,
      "pipe": 3847,
      "Ġheight": 3848,
      "parser": 3849,
      "Cre": 3850,
      "ik": 3851,
      "Ġcompliance": 3852,
      "riority": 3853,
      "vb": 3854,
      "Ġconstexpr": 3855,
      "foo": 3856,
      "ĠRT": 3857,
      "ias": 3858,
      "Ġconnection": 3859,
      "BPF": 3860,
      "Ġ17": 3861,
      "ĠNo": 3862,
      "ĠVector": 3863,
      "Ġ!==": 3864,
      "Integer": 3865,
      "setup": 3866,
      "Ġgoto": 3867,
      "sample": 3868,
      "ideo": 3869,
      "aml": 3870,
      "template": 3871,
      "[:": 3872,
      "ĠDo": 3873,
      "Web": 3874,
      "Ġdecl": 3875,
      "Ġchange": 3876,
      "REF": 3877,
      "eq": 3878,
      "asses": 3879,
      "adding": 3880,
      "Ġnullptr": 3881,
      "ĠUp": 3882,
      "side": 3883,
      "dl": 3884,
      "utils": 3885,
      "Ġdebug": 3886,
      "BUFF": 3887,
      "Ġcontinue": 3888,
      ">();": 3889,
      "Ġlay": 3890,
      "Iterator": 3891,
      "lx": 3892,
      "mount": 3893,
      "Schema": 3894,
      "atile": 3895,
      "Attr": 3896,
      "Enabled": 3897,
      "marshal": 3898,
      "UND": 3899,
      "Ph": 3900,
      "---": 3901,
      "dict": 3902,
      "Decl": 3903,
      "shut": 3904,
      "ROUP": 3905,
      "Description": 3906,
      "istance": 3907,
      "Ġfiles": 3908,
      "/>": 3909,
      "vc": 3910,
      "Last": 3911,
      "Ġstack": 3912,
      "power": 3913,
      "ĠCO": 3914,
      "runtime": 3915,
      "JSON": 3916,
      "Assert": 3917,
      "Ġinvalid": 3918,
      "Ġreference": 3919,
      "Ġwhether": 3920,
      "Ġho": 3921,
      "ĠCode": 3922,
      "imal": 3923,
      "scale": 3924,
      "rd": 3925,
      "total": 3926,
      "MR": 3927,
      "dim": 3928,
      "late": 3929,
      "gorith": 3930,
      "ĠCAN": 3931,
      "101": 3932,
      "rs": 3933,
      "ĠBit": 3934,
      "WAR": 3935,
      "Ġcontains": 3936,
      "okup": 3937,
      "ĠConfig": 3938,
      "java": 3939,
      "iron": 3940,
      "Ġlater": 3941,
      "Ġpost": 3942,
      "Template": 3943,
      "ĠPer": 3944,
      "Draw": 3945,
      "ĠĠĠĠĠĠĠĠĠĠĠĠĠĠĠĠĠĠĠĠĠĠĠĠĠĠĠĠĠĠĠĠĠĠĠĠĠĠĠ": 3946,
      "ĠDesc": 3947,
      "Ġapplicable": 3948,
      "each": 3949,
      "DEX": 3950,
      "ability": 3951,
      "ision": 3952,
      "arge": 3953,
      "irm": 3954,
      "Ġerrors": 3955,
      "PAGE": 3956,
      "chron": 3957,
      "Ġbecause": 3958,
      "Names": 3959,
      "bers": 3960,
      "ids": 3961,
      "OPY": 3962,
      "leted": 3963,
      "ĠSY": 3964,
      "Ġnow": 3965,
      "ĠAD": 3966,
      "Non": 3967,
      "ĠAuth": 3968,
      "Menu": 3969,
      "Ġjust": 3970,
      "HI": 3971,
      "Ġdif": 3972,
      "PARAM": 3973,
      "nil": 3974,
      "Expression": 3975,
      "Ġmac": 3976,
      "Internal": 3977,
      "255": 3978,
      "eta": 3979,
      "prop": 3980,
      "Ġskip": 3981,
      "Ġtop": 3982,
      "igin": 3983,
      "ENABLED": 3984,
      "Ġ\"\"": 3985,
      "hedule": 3986,
      "INLINE": 3987,
      "isters": 3988,
      "ram": 3989,
      "Ġidx": 3990,
      "DISABLE": 3991,
      "ĠĉĠĠĠĠ": 3992,
      "ĠerrnoErr": 3993,
      "ĠFunction": 3994,
      "Ġview": 3995,
      "Ġdelete": 3996,
      "arrant": 3997,
      "ous": 3998,
      "STRING": 3999,
      "Ġwire": 4000,
      "Session": 4001,
      "author": 4002,
      "\"\\": 4003,
      "Ġwarrant": 4004,
      "RET": 4005,
      "BB": 4006,
      "pair": 4007,
      "leep": 4008,
      "CHAR": 4009,
      "Ġ(((": 4010,
      "Ġsupported": 4011,
      "Ġbinary": 4012,
      "ottom": 4013,
      "Ġlimitations": 4014,
      "ĠWh": 4015,
      "enter": 4016,
      "pass": 4017,
      "FORMAT": 4018,
      "Ġgoverning": 4019,
      "ĠOut": 4020,
      "Ġhandler": 4021,
      "LS": 4022,
      "plus": 4023,
      "Ġcons": 4024,
      "WI": 4025,
      "Ġtree": 4026,
      "Ġspace": 4027,
      "nx": 4028,
      "ĠCOPY": 4029,
      "valu": 4030,
      "ĠBase": 4031,
      "REE": 4032,
      "Top": 4033,
      "toString": 4034,
      "Long": 4035,
      "pb": 4036,
      "aded": 4037,
      "DF": 4038,
      "join": 4039,
      "Ġirq": 4040,
      "make": 4041,
      "pare": 4042,
      "posit": 4043,
      "hal": 4044,
      "DIR": 4045,
      "vision": 4046,
      "CALL": 4047,
      "Api": 4048,
      "CUR": 4049,
      "platform": 4050,
      "ĠPr": 4051,
      "ĠCONDITION": 4052,
      "Ġindic": 4053,
      "Ġsys": 4054,
      "ĠDefault": 4055,
      "dec": 4056,
      "equals": 4057,
      "rec": 4058,
      "PK": 4059,
      "sock": 4060,
      "Ġconvert": 4061,
      "ution": 4062,
      "ĠCONTR": 4063,
      "ric": 4064,
      "CAN": 4065,
      "pf": 4066,
      "keys": 4067,
      "Metadata": 4068,
      "NAL": 4069,
      "Ġver": 4070,
      "ĠTrans": 4071,
      "Ġbl": 4072,
      "aws": 4073,
      "Ġwarranty": 4074,
      "short": 4075,
      "decl": 4076,
      "ĀĀĀĀ": 4077,
      "urity": 4078,
      "LP": 4079,
      "tbl": 4080,
      "invalid": 4081,
      "soc": 4082,
      "Ġattribute": 4083,
      "ĠBASIS": 4084,
      "prec": 4085,
      "4000": 4086,
      "ĠTe": 4087,
      "TRAN": 4088,
      "Ġremove": 4089,
      "ĠCONDITIONS": 4090,
      "ua": 4091,
      "Ġexist": 4092,
      "Memory": 4093,
      "ifo": 4094,
      "ĠIMP": 4095,
      "CLASS": 4096,
      "Ġargument": 4097,
      "arm": 4098,
      "tk": 4099,
      "fail": 4100,
      "CCESS": 4101,
      "Script": 4102,
      "Ġclear": 4103,
      "Ġsingle": 4104,
      "Flag": 4105,
      "AI": 4106,
      "{{": 4107,
      "rb": 4108,
      "Controller": 4109,
      "Ġattr": 4110,
      "GEN": 4111,
      "RESULT": 4112,
      "Del": 4113,
      "Ġ\"\",": 4114,
      "Over": 4115,
      "Ð¾": 4116,
      "Ġbuild": 4117,
      "https": 4118,
      "wm": 4119,
      "Http": 4120,
      "Ġmut": 4121,
      "509": 4122,
      "ĠOTHER": 4123,
      "DT": 4124,
      "pose": 4125,
      "BUFFER": 4126,
      "verse": 4127,
      "Ġenv": 4128,
      "istry": 4129,
      "boolean": 4130,
      "step": 4131,
      "WM": 4132,
      "ike": 4133,
      "memory": 4134,
      "PROC": 4135,
      "ĠHandle": 4136,
      ":%": 4137,
      "ĠIm": 4138,
      "Ġvec": 4139,
      "ounds": 4140,
      "uc": 4141,
      "If": 4142,
      "SUB": 4143,
      "Ġunit": 4144,
      "POL": 4145,
      "ĠSDL": 4146,
      "eee": 4147,
      "semb": 4148,
      "sel": 4149,
      "ene": 4150,
      "eeded": 4151,
      "ĠTEST": 4152,
      "uch": 4153,
      "OW": 4154,
      "Parent": 4155,
      "eff": 4156,
      "Ġ255": 4157,
      "ĠHT": 4158,
      "ĠAt": 4159,
      "Left": 4160,
      "tact": 4161,
      "Pool": 4162,
      "False": 4163,
      "Ġassoci": 4164,
      "cn": 4165,
      "Storage": 4166,
      "term": 4167,
      "ĠOpen": 4168,
      "Print": 4169,
      "xfe": 4170,
      "cel": 4171,
      "=(": 4172,
      "requ": 4173,
      "0040": 4174,
      ".\",": 4175,
      "Ġ#[": 4176,
      "erson": 4177,
      "></": 4178,
      "TIMER": 4179,
      "urface": 4180,
      "pri": 4181,
      "cell": 4182,
      "%%": 4183,
      "Ġrel": 4184,
      "BACK": 4185,
      "Tool": 4186,
      "done": 4187,
      "uture": 4188,
      "ERV": 4189,
      "8000": 4190,
      "\")]": 4191,
      "RB": 4192,
      "VD": 4193,
      "ATA": 4194,
      "ences": 4195,
      "pid": 4196,
      "Ġdisplay": 4197,
      "Sw": 4198,
      "ĠAL": 4199,
      "Ġmp": 4200,
      "itempty": 4201,
      "acity": 4202,
      "ertific": 4203,
      "Ġlaw": 4204,
      "Expr": 4205,
      "Argument": 4206,
      "Ġrecord": 4207,
      "plu": 4208,
      "Ġcontainer": 4209,
      "button": 4210,
      "'],": 4211,
      "ĠĠĠĠĠĠĠĠĠĠĠĠĠĠĠĠĠĠĠĠĠĠĠĠĠĠĠĠĠĠĠĠĠĠĠĠĠĠĠĠĠĠĠ": 4212,
      "omitempty": 4213,
      "Ġarguments": 4214,
      "legal": 4215,
      "WS": 4216,
      "pin": 4217,
      "Role": 4218,
      "kernel": 4219,
      "sql": 4220,
      "Ġbr": 4221,
      "container": 4222,
      "sort": 4223,
      "////////////////////////////////////////////////////////////////////////////////////////////////////////////////////////////////": 4224,
      "mov": 4225,
      "Ġusb": 4226,
      "Parse": 4227,
      "la": 4228,
      "pend": 4229,
      "cat": 4230,
      "Ġurl": 4231,
      "loy": 4232,
      "JECT": 4233,
      "Ġtimeout": 4234,
      "ips": 4235,
      "Ġalong": 4236,
      "section": 4237,
      "ĠUnless": 4238,
      "split": 4239,
      "ibility": 4240,
      "counter": 4241,
      ">&": 4242,
      "Ġdb": 4243,
      "fields": 4244,
      "Ġagreed": 4245,
      "});": 4246,
      "bin": 4247,
      "tm": 4248,
      "Ġptr": 4249,
      "Ġenabled": 4250,
      "ãĥ": 4251,
      "TAG": 4252,
      "Ġawait": 4253,
      "fx": 4254,
      "Custom": 4255,
      "Cond": 4256,
      "olver": 4257,
      "Failed": 4258,
      "au": 4259,
      "Ġbetween": 4260,
      "PB": 4261,
      "Queue": 4262,
      "Ġhope": 4263,
      "font": 4264,
      "Ġmark": 4265,
      "Cmd": 4266,
      "agma": 4267,
      "SEQ": 4268,
      "!!!!!!": 4269,
      "shot": 4270,
      "Ġsample": 4271,
      "mother": 4272,
      "Ġ\"/": 4273,
      "idden": 4274,
      "ested": 4275,
      "Ġnames": 4276,
      "ĠMODULE": 4277,
      "Items": 4278,
      "\"],": 4279,
      "Timeout": 4280,
      "Ġstyle": 4281,
      "ights": 4282,
      "fucking": 4283,
      "motherfucking": 4284,
      "################": 4285,
      "codec": 4286,
      "xis": 4287,
      "scan": 4288,
      "probe": 4289,
      "ĠInterrupt": 4290,
      "reference": 4291,
      "gorithm": 4292,
      "Root": 4293,
      "ORS": 4294,
      "atomic": 4295,
      "åı": 4296,
      "sig": 4297,
      "amily": 4298,
      "Ġvol": 4299,
      "reshold": 4300,
      "ĠVal": 4301,
      "CHANNEL": 4302,
      "ĠNote": 4303,
      "tab": 4304,
      "OV": 4305,
      "STAN": 4306,
      "ĠDB": 4307,
      "PCI": 4308,
      "/**/'": 4309,
      "003": 4310,
      "ecution": 4311,
      "ha": 4312,
      "ĠUS": 4313,
      "ĠNot": 4314,
      "Ġelements": 4315,
      "Display": 4316,
      "Job": 4317,
      "CRE": 4318,
      "Ġtotal": 4319,
      "GROUP": 4320,
      "SRC": 4321,
      "Ġexit": 4322,
      "Ġcustom": 4323,
      "BITS": 4324,
      "cho": 4325,
      "ĠInput": 4326,
      "inline": 4327,
      "ãĤ": 4328,
      "Ðµ": 4329,
      "Inst": 4330,
      "ĠHW": 4331,
      "Only": 4332,
      "entic": 4333,
      "iteral": 4334,
      "SOC": 4335,
      "ĠApp": 4336,
      ")},": 4337,
      "dat": 4338,
      "Mon": 4339,
      "ĠRedistribut": 4340,
      "ĠByte": 4341,
      "testing": 4342,
      "ĠStatus": 4343,
      "Ġ(__": 4344,
      "ĠKey": 4345,
      "icode": 4346,
      "css": 4347,
      "prefix": 4348,
      "cla": 4349,
      "WID": 4350,
      "ĠClass": 4351,
      "pll": 4352,
      "ĠSD": 4353,
      "Dr": 4354,
      "ferent": 4355,
      "ossible": 4356,
      "IZ": 4357,
      "blk": 4358,
      "Bar": 4359,
      "Ġplatform": 4360,
      "plit": 4361,
      "ĠArg": 4362,
      "ACCE": 4363,
      "{},": 4364,
      "Send": 4365,
      "GP": 4366,
      "Math": 4367,
      "Support": 4368,
      "clip": 4369,
      "WARN": 4370,
      "LIED": 4371,
      "Ġrt": 4372,
      "na": 4373,
      "acy": 4374,
      "wner": 4375,
      "wl": 4376,
      "RS": 4377,
      "rule": 4378,
      "Ġmy": 4379,
      "ĠMap": 4380,
      "USER": 4381,
      "Runtime": 4382,
      "errors": 4383,
      "ĠOption": 4384,
      "FFFFFF": 4385,
      "ĠDAMAGE": 4386,
      "ĠÐ": 4387,
      "pcm": 4388,
      "Ġ18": 4389,
      "hel": 4390,
      "MODULE": 4391,
      "ĠAd": 4392,
      "Wh": 4393,
      "elf": 4394,
      ")\",": 4395,
      "erm": 4396,
      "shared": 4397,
      "ĠIMPLIED": 4398,
      "Ġ[[": 4399,
      "ĠNode": 4400,
      "FAIL": 4401,
      "apped": 4402,
      "ired": 4403,
      "ARB": 4404,
      "ironment": 4405,
      "ializer": 4406,
      "ulator": 4407,
      "coded": 4408,
      "ĠSc": 4409,
      "Ġ30": 4410,
      "Ġdrm": 4411,
      "freq": 4412,
      "ĠOUT": 4413,
      "Down": 4414,
      "win": 4415,
      "non": 4416,
      "Instruction": 4417,
      "SUCCESS": 4418,
      "should": 4419,
      "lick": 4420,
      "Ġoriginal": 4421,
      "qp": 4422,
      "Ġthey": 4423,
      "INDEX": 4424,
      "description": 4425,
      "Ġdel": 4426,
      "HER": 4427,
      "Ġlibrary": 4428,
      "imary": 4429,
      "TRACE": 4430,
      "uring": 4431,
      "RTC": 4432,
      "avi": 4433,
      "ĠSC": 4434,
      "rad": 4435,
      "Ġresults": 4436,
      "'\\": 4437,
      "just": 4438,
      "assed": 4439,
      "Ġstrings": 4440,
      "Ġobjects": 4441,
      "Pl": 4442,
      "3333": 4443,
      "Ġpci": 4444,
      "points": 4445,
      "Widget": 4446,
      "METH": 4447,
      "Ġundefined": 4448,
      "Ġloop": 4449,
      "vs": 4450,
      "Account": 4451,
      "Ġclk": 4452,
      "Ġasync": 4453,
      "ĠUINT": 4454,
      "RI": 4455,
      "enabled": 4456,
      "ĠSPI": 4457,
      "duce": 4458,
      "pository": 4459,
      "USED": 4460,
      "AST": 4461,
      "ured": 4462,
      "eric": 4463,
      "Pass": 4464,
      "ancel": 4465,
      "Active": 4466,
      "ENOMEM": 4467,
      "ctor": 4468,
      "ersist": 4469,
      "ressed": 4470,
      "GER": 4471,
      "Ġmatrix": 4472,
      "ĠLIMIT": 4473,
      "snd": 4474,
      "ĠCall": 4475,
      "amer": 4476,
      "edia": 4477,
      "Volume": 4478,
      "ĠBE": 4479,
      "ĠCL": 4480,
      "IGN": 4481,
      "kens": 4482,
      "dump": 4483,
      "ometry": 4484,
      "MPLE": 4485,
      "alk": 4486,
      "Are": 4487,
      "destroy": 4488,
      "Ret": 4489,
      "KERNEL": 4490,
      "Parser": 4491,
      "->_": 4492,
      "settings": 4493,
      "document": 4494,
      "Env": 4495,
      "ĠEvent": 4496,
      "Ġbeing": 4497,
      "script": 4498,
      "300": 4499,
      "Ġgenerated": 4500,
      "Ġadditional": 4501,
      "Ġsession": 4502,
      "med": 4503,
      "ĠassertEquals": 4504,
      "heme": 4505,
      "FG": 4506,
      "BC": 4507,
      "RESS": 4508,
      "voke": 4509,
      "VAR": 4510,
      "INPUT": 4511,
      "Ġdirectory": 4512,
      "Ġren": 4513,
      "Ġotherwise": 4514,
      "gs": 4515,
      "gpu": 4516,
      "bf": 4517,
      ")).": 4518,
      "emit": 4519,
      "IPV": 4520,
      "UART": 4521,
      "Ġexample": 4522,
      "Cap": 4523,
      "Ġdirect": 4524,
      "{};": 4525,
      "Ġword": 4526,
      "MBOL": 4527,
      "ĠIRQ": 4528,
      "ISC": 4529,
      "Ġequal": 4530,
      "DAC": 4531,
      "Ġdir": 4532,
      "ĠĠĠĠĠĠĠĠĠĠĠĠĠĠĠĠĠĠĠĠĠĠĠĠĠĠĠĠĠĠĠĠĠ": 4533,
      "FLAGS": 4534,
      "CSR": 4535,
      "ordin": 4536,
      "Ġignore": 4537,
      "Ġpin": 4538,
      "DESC": 4539,
      "eek": 4540,
      "ĠCOPYRIGHT": 4541,
      "Im": 4542,
      "Ġfin": 4543,
      "ĠWrite": 4544,
      "inc": 4545,
      "ĠBUT": 4546,
      "note": 4547,
      "uff": 4548,
      "ioc": 4549,
      "___": 4550,
      "Ġparam": 4551,
      "tf": 4552,
      "__(": 4553,
      "Ste": 4554,
      "Ġ\\\"": 4555,
      "Ġwr": 4556,
      "pointer": 4557,
      "BM": 4558,
      "ĠUpdate": 4559,
      "undle": 4560,
      "Gui": 4561,
      "Ġsets": 4562,
      "dated": 4563,
      "Bits": 4564,
      "apshot": 4565,
      "fill": 4566,
      "FIX": 4567,
      "01234567890123456789012345678901234567890123456789012345678901234567890123456789": 4568,
      "!==": 4569,
      "BT": 4570,
      "ardware": 4571,
      "Close": 4572,
      "opts": 4573,
      "filename": 4574,
      "SED": 4575,
      "Symbol": 4576,
      "ĠCPU": 4577,
      "PERF": 4578,
      "Font": 4579,
      "Ġsecond": 4580,
      "eer": 4581,
      "DRV": 4582,
      "Ġlocation": 4583,
      "Ġcreated": 4584,
      "leanup": 4585,
      "SSERT": 4586,
      "IA": 4587,
      "Ġxml": 4588,
      "ĠFALSE": 4589,
      "CLE": 4590,
      "ĠOracle": 4591,
      "00000001": 4592,
      "Ġfd": 4593,
      "ertificate": 4594,
      "fff": 4595,
      "ARM": 4596,
      "ged": 4597,
      "Ġabout": 4598,
      "kfree": 4599,
      "Ġalways": 4600,
      "span": 4601,
      "curity": 4602,
      "Network": 4603,
      "pending": 4604,
      "allow": 4605,
      "names": 4606,
      ")*": 4607,
      "respon": 4608,
      "Br": 4609,
      "connection": 4610,
      "ĠUN": 4611,
      "render": 4612,
      "Ġcap": 4613,
      "Ġ----------------------------------------------------------------": 4614,
      "SYMBOL": 4615,
      "apply": 4616,
      "Ġcannot": 4617,
      "Track": 4618,
      "Definition": 4619,
      "Ġimplementation": 4620,
      "UINT": 4621,
      "Us": 4622,
      "aise": 4623,
      "utf": 4624,
      "chunk": 4625,
      "Ġthese": 4626,
      "Ass": 4627,
      "rtl": 4628,
      "Ġdocumentation": 4629,
      "day": 4630,
      "Ġcop": 4631,
      "trl": 4632,
      "ENC": 4633,
      "Ġrender": 4634,
      "FX": 4635,
      "Cell": 4636,
      "Space": 4637,
      "xffffffff": 4638,
      "ĠĉĉĉĠĠ": 4639,
      "Ġunsafe": 4640,
      "nv": 4641,
      "Ġreflect": 4642,
      "throw": 4643,
      "rm": 4644,
      "çļ": 4645,
      "Ġthem": 4646,
      "Marshal": 4647,
      "Search": 4648,
      "Ġdown": 4649,
      "TRUE": 4650,
      "Ab": 4651,
      "Ġ''": 4652,
      "pad": 4653,
      "supported": 4654,
      "Py": 4655,
      "ĠCH": 4656,
      "ier": 4657,
      "Attributes": 4658,
      "xCC": 4659,
      "ĠLIMITED": 4660,
      "([]": 4661,
      "osition": 4662,
      "Vec": 4663,
      "ĠMet": 4664,
      "Ġman": 4665,
      "Ġinteger": 4666,
      "Ġprevious": 4667,
      "Ġnp": 4668,
      "ĠARRAY": 4669,
      "çļĦ": 4670,
      "meta": 4671,
      "Changed": 4672,
      "mux": 4673,
      "!=": 4674,
      "ĠCA": 4675,
      "eep": 4676,
      "ENCE": 4677,
      "Ġactual": 4678,
      "Ġvm": 4679,
      "Ð¸": 4680,
      "CG": 4681,
      "second": 4682,
      "Select": 4683,
      "Scalar": 4684,
      "Uint": 4685,
      "ANDLE": 4686,
      "BOOST": 4687,
      "png": 4688,
      "keep": 4689,
      "Vertex": 4690,
      "Ġproject": 4691,
      "Ġwritten": 4692,
      "Ġocc": 4693,
      "Variable": 4694,
      "Ġsince": 4695,
      "Cal": 4696,
      ")?": 4697,
      "Ġstep": 4698,
      "Ge": 4699,
      "pragma": 4700,
      "PATH": 4701,
      "COLOR": 4702,
      "slot": 4703,
      "Ġassociated": 4704,
      "Src": 4705,
      "ĠQu": 4706,
      "Ġbody": 4707,
      "ĠSCB": 4708,
      "ĠLIABILITY": 4709,
      "ced": 4710,
      ":[": 4711,
      "Ġinstead": 4712,
      "Global": 4713,
      "ĠTrue": 4714,
      "(((": 4715,
      "Rel": 4716,
      "LECT": 4717,
      "ĠJSON": 4718,
      "wrap": 4719,
      "project": 4720,
      "Extension": 4721,
      "-.": 4722,
      "YPE": 4723,
      "Ġpoints": 4724,
      "Ġbus": 4725,
      "record": 4726,
      ".__": 4727,
      "Mock": 4728,
      "sure": 4729,
      "HR": 4730,
      "ĠĠĠĠĠĠĠĠĠĠĠĠĠĠĠĠĠĠĠĠĠĠĠĠĠĠĠĠĠĠĠĠĠĠ": 4731,
      "Ġprefix": 4732,
      "EOF": 4733,
      "ĠLo": 4734,
      "Windows": 4735,
      "Ġthrough": 4736,
      "havi": 4737,
      "erived": 4738,
      "One": 4739,
      "LD": 4740,
      "ETH": 4741,
      "Alloc": 4742,
      "Ġ25": 4743,
      "First": 4744,
      "RATE": 4745,
      "imation": 4746,
      "import": 4747,
      "adow": 4748,
      "vid": 4749,
      "',/**/'": 4750,
      "Ġselect": 4751,
      "APP": 4752,
      "Sample": 4753,
      "Selector": 4754,
      "Scope": 4755,
      "\\\":": 4756,
      "Tx": 4757,
      "[$": 4758,
      "letion": 4759,
      "ĠĉĉĠ": 4760,
      "Limit": 4761,
      "hci": 4762,
      "draw": 4763,
      "Rout": 4764,
      "abc": 4765,
      "Ġdiv": 4766,
      "mapping": 4767,
      "()));": 4768,
      "Fail": 4769,
      "Ġparser": 4770,
      "aved": 4771,
      "Ġsearch": 4772,
      "ĠMem": 4773,
      "Ġnormal": 4774,
      "MAL": 4775,
      "fi": 4776,
      "ARY": 4777,
      "ĠUSA": 4778,
      "Member": 4779,
      "URN": 4780,
      "Unexpected": 4781,
      "idge": 4782,
      "high": 4783,
      "ings": 4784,
      "WIDTH": 4785,
      "Ġactive": 4786,
      "dig": 4787,
      "ĠĀ": 4788,
      "Ġsignal": 4789,
      "mock": 4790,
      "ances": 4791,
      "master": 4792,
      "alt": 4793,
      "moved": 4794,
      "Opt": 4795,
      "uri": 4796,
      "loor": 4797,
      "ĠTODO": 4798,
      ":{": 4799,
      "ended": 4800,
      "virtual": 4801,
      "icle": 4802,
      "ga": 4803,
      "scription": 4804,
      "IDX": 4805,
      "alpha": 4806,
      "Ġput": 4807,
      "WER": 4808,
      "Ġsl": 4809,
      "Ġproduct": 4810,
      "xba": 4811,
      "Project": 4812,
      "Man": 4813,
      "ĠTX": 4814,
      "]->": 4815,
      "We": 4816,
      "Ġclose": 4817,
      "Ġstop": 4818,
      "VEL": 4819,
      "ĠUSART": 4820,
      "<?": 4821,
      "Ġimplements": 4822,
      "ched": 4823,
      "APB": 4824,
      "ĠNumber": 4825,
      "Ġdifferent": 4826,
      "mitted": 4827,
      "VALID": 4828,
      "bed": 4829,
      "Ġ//----------------------------------------------------------------": 4830,
      "member": 4831,
      "Bl": 4832,
      "flush": 4833,
      "Ġdescription": 4834,
      "pkt": 4835,
      "chain": 4836,
      "NX": 4837,
      "PWR": 4838,
      "Auto": 4839,
      "DECL": 4840,
      "depth": 4841,
      "crement": 4842,
      "Security": 4843,
      "ually": 4844,
      "MON": 4845,
      "tv": 4846,
      "Ġinstanceof": 4847,
      "Ġmultiple": 4848,
      "Texture": 4849,
      "ĠControl": 4850,
      "Ġtimer": 4851,
      "sets": 4852,
      "pages": 4853,
      "ĠIndex": 4854,
      "Ġshow": 4855,
      "ITER": 4856,
      "real": 4857,
      "memcpy": 4858,
      "ĠAC": 4859,
      "ictionary": 4860,
      "istory": 4861,
      "Ġbcm": 4862,
      "arshall": 4863,
      "Unknown": 4864,
      "ummy": 4865,
      "ERRUP": 4866,
      "fix": 4867,
      "network": 4868,
      "CU": 4869,
      "tect": 4870,
      "ij": 4871,
      "Right": 4872,
      "amera": 4873,
      "ĠĉĉĠĠ": 4874,
      "urb": 4875,
      "olution": 4876,
      "Ġcounter": 4877,
      "Ġown": 4878,
      "ĠAV": 4879,
      "ĠTRUE": 4880,
      "Dest": 4881,
      "Ġcomm": 4882,
      "entity": 4883,
      "ident": 4884,
      "Ġcharacter": 4885,
      "Ġrule": 4886,
      "EB": 4887,
      "Ġsn": 4888,
      "Ġapply": 4889,
      "MX": 4890,
      "Ġrx": 4891,
      "Ġhw": 4892,
      "GT": 4893,
      "Ġet": 4894,
      "Transform": 4895,
      "âĶ": 4896,
      "acing": 4897,
      "bh": 4898,
      "ĠSPD": 4899,
      "ĠSyscall": 4900,
      "Ġincluded": 4901,
      "RM": 4902,
      "metadata": 4903,
      "ĠASSERT": 4904,
      "requency": 4905,
      "plugin": 4906,
      "ĠĉĉĉĠ": 4907,
      "Ġconnect": 4908,
      "Ġsettings": 4909,
      "exist": 4910,
      "ĠSource": 4911,
      "Ġ(!(": 4912,
      "CORE": 4913,
      "Free": 4914,
      "sta": 4915,
      "Ġjav": 4916,
      "agement": 4917,
      "Double": 4918,
      "ross": 4919,
      "Ġbegin": 4920,
      "SF": 4921,
      "restore": 4922,
      "SHA": 4923,
      "oot": 4924,
      "interrupt": 4925,
      "GPL": 4926,
      "Mark": 4927,
      "ives": 4928,
      "Ġnv": 4929,
      "aj": 4930,
      "Ġpassed": 4931,
      "Doc": 4932,
      "Require": 4933,
      "track": 4934,
      "Ġsection": 4935,
      "ĠCor": 4936,
      "argin": 4937,
      "../../": 4938,
      "Ġgen": 4939,
      "ERS": 4940,
      "REAM": 4941,
      "dw": 4942,
      "pende": 4943,
      "Ġsubject": 4944,
      "SEC": 4945,
      "Use": 4946,
      ".\");": 4947,
      "HP": 4948,
      "Ġrout": 4949,
      "writel": 4950,
      "Ġdisable": 4951,
      "rev": 4952,
      "Packet": 4953,
      "exports": 4954,
      "]+": 4955,
      "Ġinode": 4956,
      "ĠMask": 4957,
      "Ġ199": 4958,
      "socket": 4959,
      "110": 4960,
      "zz": 4961,
      "Ġsum": 4962,
      "Full": 4963,
      "math": 4964,
      "EY": 4965,
      "Ġinv": 4966,
      "throws": 4967,
      "beta": 4968,
      "Ġboth": 4969,
      "boot": 4970,
      "Ġraw": 4971,
      "report": 4972,
      "skip": 4973,
      "Dialog": 4974,
      "Sk": 4975,
      "img": 4976,
      "amb": 4977,
      "Ġmon": 4978,
      "xbf": 4979,
      "Ġmethods": 4980,
      "Lib": 4981,
      "QUE": 4982,
      "ĠĉĉĊ": 4983,
      "framework": 4984,
      "Prefix": 4985,
      "Ġinsert": 4986,
      "Lenum": 4987,
      "Enable": 4988,
      "Cluster": 4989,
      "HS": 4990,
      "events": 4991,
      "\",\"__": 4992,
      "Report": 4993,
      "custom": 4994,
      "Detail": 4995,
      "PROTO": 4996,
      "ĠĉĉĉĉĠĠĠ": 4997,
      "Ġ*);": 4998,
      "undef": 4999,
      "ãĢ": 5000,
      "owner": 5001,
      "RING": 5002,
      "~~~~": 5003,
      "Buf": 5004,
      "cx": 5005,
      "Ġselected": 5006,
      "SCRIP": 5007,
      "BI": 5008,
      "ĠLoc": 5009,
      "Ġ21": 5010,
      "itive": 5011,
      "ĠNE": 5012,
      "...)": 5013,
      "serv": 5014,
      "protocol": 5015,
      "Ġsuch": 5016,
      "Ġmapping": 5017,
      "PY": 5018,
      "áĥ": 5019,
      "ae": 5020,
      "Xml": 5021,
      "Ġskb": 5022,
      "Ġpng": 5023,
      "],[-": 5024,
      "aut": 5025,
      "zon": 5026,
      "Scale": 5027,
      "rv": 5028,
      "Ġsort": 5029,
      "ÑĤ": 5030,
      "Ġdma": 5031,
      "ĠDIS": 5032,
      "nl": 5033,
      "complete": 5034,
      "iph": 5035,
      "nb": 5036,
      "()))": 5037,
      "CID": 5038,
      "DATE": 5039,
      "ARRAY": 5040,
      "files": 5041,
      "ĠĠĠĠĠĠĠĠĠĠĠĠĠĠĠĠĠĠĠĠĠĠĠĠĠĠĠĠĠĠĠĠĠĠĠĠ": 5042,
      ")/": 5043,
      "Ġ///<": 5044,
      "ifies": 5045,
      "Ġneeded": 5046,
      "ĠDate": 5047,
      "åĪ": 5048,
      "sym": 5049,
      "DOWN": 5050,
      "Ġpower": 5051,
      "aaaaaaaa": 5052,
      "]),": 5053,
      "ĠĉĠĠĠĠĠ": 5054,
      "HB": 5055,
      "DIRECT": 5056,
      "apture": 5057,
      "()),": 5058,
      "ĠGFP": 5059,
      "async": 5060,
      "ĠSW": 5061,
      "PG": 5062,
      "Ġdate": 5063,
      "ssages": 5064,
      "greg": 5065,
      "ategy": 5066,
      "Ġbased": 5067,
      "Ġdoesn": 5068,
      "Ġkernel": 5069,
      "slice": 5070,
      "sq": 5071,
      "Ġll": 5072,
      "ires": 5073,
      "ii": 5074,
      "Ġ/>": 5075,
      "Ġlp": 5076,
      "props": 5077,
      "IAL": 5078,
      "LEVEL": 5079,
      ")[": 5080,
      "VOL": 5081,
      "Ð½": 5082,
      "Ġevents": 5083,
      "Logger": 5084,
      "!(": 5085,
      "engine": 5086,
      "+\"": 5087,
      "ĠĉĉĉĠĠĠĠĠĠ": 5088,
      "XG": 5089,
      "pkg": 5090,
      "loop": 5091,
      "Icon": 5092,
      "()).": 5093,
      "ĠSTM": 5094,
      "entries": 5095,
      "netdev": 5096,
      "Ġdomain": 5097,
      "Ġour": 5098,
      "hell": 5099,
      "wd": 5100,
      "ĠEVENT": 5101,
      "ius": 5102,
      "Ġ//#": 5103,
      "FIFO": 5104,
      "NR": 5105,
      "mediate": 5106,
      "ators": 5107,
      "ASE": 5108,
      "TF": 5109,
      "video": 5110,
      "ĠMath": 5111,
      "Ġ31": 5112,
      "STATIC": 5113,
      "Protocol": 5114,
      "Ġdim": 5115,
      "Ġinitial": 5116,
      "Raw": 5117,
      "Keys": 5118,
      "ĠĉĉĉĠĠĠĠ": 5119,
      "Ġonce": 5120,
      "Domain": 5121,
      "II": 5122,
      "Region": 5123,
      "Ġsure": 5124,
      "Ġchunk": 5125,
      "Ġ128": 5126,
      "Ġyy": 5127,
      "elem": 5128,
      "storage": 5129,
      "YP": 5130,
      "Ġpossible": 5131,
      "Ġreport": 5132,
      "tls": 5133,
      "POWER": 5134,
      "PRI": 5135,
      "FMT": 5136,
      "STD": 5137,
      "Ġ('": 5138,
      "Tick": 5139,
      "VC": 5140,
      "Ġsocket": 5141,
      "*(": 5142,
      "dup": 5143,
      "Props": 5144,
      "va": 5145,
      "dk": 5146,
      "ĠRX": 5147,
      "inner": 5148,
      "Slice": 5149,
      "Binding": 5150,
      "Ġagain": 5151,
      "POS": 5152,
      "rdev": 5153,
      "Ġsequence": 5154,
      "ntax": 5155,
      "initions": 5156,
      "NODE": 5157,
      "Ġdistribution": 5158,
      "ĠUser": 5159,
      "uart": 5160,
      "ished": 5161,
      "WD": 5162,
      "Ġcould": 5163,
      "Ġopts": 5164,
      "Idx": 5165,
      "Tab": 5166,
      "Selection": 5167,
      "Ġprob": 5168,
      "ĠOutput": 5169,
      "Generic": 5170,
      "ĠAddress": 5171,
      "Shape": 5172,
      "Application": 5173,
      "ĠiNdEx": 5174,
      "Ġpermission": 5175,
      "Ġentries": 5176,
      "failed": 5177,
      "ĠCR": 5178,
      "Ġconstant": 5179,
      "**/": 5180,
      "HANDLE": 5181,
      "ĠSize": 5182,
      "UNK": 5183,
      "ness": 5184,
      "}\\": 5185,
      "exec": 5186,
      "lane": 5187,
      "rypto": 5188,
      "STOP": 5189,
      "TIMEOUT": 5190,
      "ĠSub": 5191,
      "HOST": 5192,
      "'.": 5193,
      "ĠPFN": 5194,
      "Av": 5195,
      "Ġcore": 5196,
      "UEST": 5197,
      "bound": 5198,
      "channels": 5199,
      "ĠWhen": 5200,
      "Ġscale": 5201,
      "ploy": 5202,
      "GTH": 5203,
      "aly": 5204,
      "600": 5205,
      "trigger": 5206,
      "192": 5207,
      "Ġhow": 5208,
      "pan": 5209,
      "=[": 5210,
      "Ġ23": 5211,
      "MARK": 5212,
      "USH": 5213,
      "pixel": 5214,
      "example": 5215,
      "Ġelem": 5216,
      "rf": 5217,
      "Ver": 5218,
      "atio": 5219,
      "Ġexpression": 5220,
      "compat": 5221,
      "Ġadded": 5222,
      "ĠMessage": 5223,
      "________": 5224,
      "Ġlike": 5225,
      "ĠĉĉĠĠĠĠĠĠ": 5226,
      "IGH": 5227,
      "ically": 5228,
      "Ġsymbol": 5229,
      "SQ": 5230,
      "gc": 5231,
      "Ġkeys": 5232,
      "VT": 5233,
      "CNT": 5234,
      "ernet": 5235,
      "ĠInter": 5236,
      "TIF": 5237,
      "Ġsb": 5238,
      "ĠEXPORT": 5239,
      "Rece": 5240,
      "Hz": 5241,
      "alle": 5242,
      "pol": 5243,
      "Ġpipe": 5244,
      "ole": 5245,
      "Found": 5246,
      "legate": 5247,
      "arguments": 5248,
      "Ġbuilder": 5249,
      "Boolean": 5250,
      "Layer": 5251,
      "Ġwould": 5252,
      "seg": 5253,
      "Editor": 5254,
      "Ġregisters": 5255,
      "ARCH": 5256,
      "pret": 5257,
      "GO": 5258,
      "VO": 5259,
      "idd": 5260,
      "Ġ1000": 5261,
      "NEXT": 5262,
      "EXPORT": 5263,
      "CLOCK": 5264,
      "Ġjavax": 5265,
      "ĠĠĠĠĠĠĠĠĠĠĠĠĠĠĠĠĠĠĠĠĠĠĠĠĠĠĠĠĠĠĠĠĠĠĠĠĠ": 5266,
      "000001": 5267,
      "iltin": 5268,
      "Ġ28": 5269,
      "schema": 5270,
      "nost": 5271,
      "diff": 5272,
      "Any": 5273,
      "ĠĉĉĉĉĠ": 5274,
      "speed": 5275,
      "ling": 5276,
      "KERN": 5277,
      "Ġwithin": 5278,
      "Trace": 5279,
      "wire": 5280,
      "phys": 5281,
      "oriz": 5282,
      "Adapter": 5283,
      "ĠDEF": 5284,
      "CTX": 5285,
      "Ġhigh": 5286,
      "Ġ22": 5287,
      "Ġfusion": 5288,
      "println": 5289,
      "cluding": 5290,
      "book": 5291,
      "LIB": 5292,
      "]))": 5293,
      "irmware": 5294,
      "syscall": 5295,
      "ĠĠĠĠĠĠĠĠĠĠĠĠĠĠĠĠĠĠĠĠĠĠĠĠĠĠĠĠĠĠĠĠĠĠĠĠĠĠĠĠ": 5296,
      "esh": 5297,
      "ĠState": 5298,
      "area": 5299,
      "hd": 5300,
      "ĠSPDX": 5301,
      "abab": 5302,
      "defer": 5303,
      "ough": 5304,
      "ĠField": 5305,
      "rank": 5306,
      "Ġandroid": 5307,
      "Ġproperties": 5308,
      "Namespace": 5309,
      "Generator": 5310,
      "Bool": 5311,
      "Ġsim": 5312,
      "lookup": 5313,
      "uspend": 5314,
      "Ġmlx": 5315,
      "SIGN": 5316,
      "EEE": 5317,
      ";\\": 5318,
      "ĠFLA": 5319,
      "isc": 5320,
      "warn": 5321,
      "matrix": 5322,
      "Edit": 5323,
      "LOAT": 5324,
      "Ġdescriptor": 5325,
      "yph": 5326,
      "REC": 5327,
      "ĠEnd": 5328,
      "TRI": 5329,
      "Ġcorrect": 5330,
      "policy": 5331,
      "ĠSSL": 5332,
      "ÑĢ": 5333,
      "Plugin": 5334,
      "claimer": 5335,
      "ICAg": 5336,
      "Engine": 5337,
      "NON": 5338,
      "ges": 5339,
      "DD": 5340,
      "STRU": 5341,
      "tric": 5342,
      "Build": 5343,
      "signal": 5344,
      "ĠCal": 5345,
      "Ġimpl": 5346,
      "ĠOp": 5347,
      "ĠĉĉĉĉĠĠ": 5348,
      "Ġpixel": 5349,
      "Ġdec": 5350,
      "ĠMax": 5351,
      "002": 5352,
      "Ġreal": 5353,
      "Duration": 5354,
      "Ġcorrespon": 5355,
      "FILTER": 5356,
      "ĠStr": 5357,
      "heet": 5358,
      "ATURE": 5359,
      "Ġbound": 5360,
      "Ġsock": 5361,
      "tml": 5362,
      "ached": 5363,
      "audio": 5364,
      "Sequence": 5365,
      "tcp": 5366,
      "decode": 5367,
      "endor": 5368,
      "SPACE": 5369,
      "ivers": 5370,
      "SELECT": 5371,
      "zone": 5372,
      "Can": 5373,
      "FRAME": 5374,
      "Ġaccomp": 5375,
      "Mat": 5376,
      "Ġrate": 5377,
      "ĠGPL": 5378,
      "Ġprotocol": 5379,
      "-+": 5380,
      "ites": 5381,
      "--;": 5382,
      "romise": 5383,
      "Ġitems": 5384,
      "ĠON": 5385,
      "force": 5386,
      "Remove": 5387,
      "Profile": 5388,
      "akes": 5389,
      "Ġapplication": 5390,
      "ression": 5391,
      "Ġsave": 5392,
      "scal": 5393,
      "thon": 5394,
      "ĠXXX": 5395,
      "Ġwx": 5396,
      "Ġhold": 5397,
      "ĠRequest": 5398,
      "gb": 5399,
      "Post": 5400,
      "serialize": 5401,
      "MBER": 5402,
      "Package": 5403,
      "ragment": 5404,
      "Ġ26": 5405,
      "losed": 5406,
      "Ġtrack": 5407,
      "ĠNV": 5408,
      "lm": 5409,
      "att": 5410,
      ">;": 5411,
      "Ġdefinition": 5412,
      "issing": 5413,
      "LED": 5414,
      "${": 5415,
      "ĠSome": 5416,
      "spr": 5417,
      "ture": 5418,
      "ĠCre": 5419,
      "acters": 5420,
      "nodes": 5421,
      "Ġcfg": 5422,
      "TCP": 5423,
      "ENS": 5424,
      "Wait": 5425,
      "Ġendpoint": 5426,
      "contains": 5427,
      "Ġmaximum": 5428,
      "Ġns": 5429,
      "CONF": 5430,
      "Player": 5431,
      "Ġ51": 5432,
      "Transaction": 5433,
      "ĠStart": 5434,
      "tection": 5435,
      "ĠForm": 5436,
      "Ġscript": 5437,
      "acc": 5438,
      "Rate": 5439,
      "MOVE": 5440,
      "annotation": 5441,
      "STREAM": 5442,
      "intr": 5443,
      "}.": 5444,
      "Ġpriv": 5445,
      "frag": 5446,
      "direct": 5447,
      "MIX": 5448,
      "](": 5449,
      "llegal": 5450,
      "rowser": 5451,
      "xcc": 5452,
      "æľ": 5453,
      "Endpoint": 5454,
      "Ġtoo": 5455,
      "Annot": 5456,
      "mf": 5457,
      "Ġcref": 5458,
      "ĠText": 5459,
      "LENGTH": 5460,
      "xxx": 5461,
      "Ġaccount": 5462,
      "Sum": 5463,
      "Ġchain": 5464,
      "Ġarch": 5465,
      "ssl": 5466,
      "Ġprintf": 5467,
      "Ġuntil": 5468,
      "ĠInteger": 5469,
      "SCAL": 5470,
      "Ġ<?": 5471,
      "STA": 5472,
      "layout": 5473,
      "kt": 5474,
      "covery": 5475,
      "transform": 5476,
      "CONTEXT": 5477,
      "ATCH": 5478,
      "ection": 5479,
      "vp": 5480,
      "Ġ..": 5481,
      "Apply": 5482,
      "Ġdisclaimer": 5483,
      "111": 5484,
      "Pattern": 5485,
      "Mapping": 5486,
      "verter": 5487,
      "Elements": 5488,
      "ARGET": 5489,
      "Title": 5490,
      "Ġsent": 5491,
      "Proxy": 5492,
      "mazon": 5493,
      "{})": 5494,
      "500": 5495,
      "ru": 5496,
      "herit": 5497,
      "Short": 5498,
      "Ġregion": 5499,
      "PRINT": 5500,
      "alf": 5501,
      "ToString": 5502,
      "TM": 5503,
      "Ġconf": 5504,
      "lines": 5505,
      "POINT": 5506,
      "HEADER": 5507,
      "ĠPack": 5508,
      "Ġsetting": 5509,
      "ISING": 5510,
      "TRA": 5511,
      "namespace": 5512,
      "faces": 5513,
      "xfc": 5514,
      "por": 5515,
      "idate": 5516,
      "ĠSpec": 5517,
      "ĠReserved": 5518,
      "tim": 5519,
      "ĉĉĉĉĉ": 5520,
      "ĠMode": 5521,
      "CLU": 5522,
      "(\"\\": 5523,
      "Ġneg": 5524,
      "Red": 5525,
      "Ġloc": 5526,
      "IBUT": 5527,
      "ĠSw": 5528,
      "ICES": 5529,
      "Ġnetwork": 5530,
      "Mut": 5531,
      "Dim": 5532,
      "ĠEXTI": 5533,
      "Ġcommon": 5534,
      "STM": 5535,
      "DLT": 5536,
      "POST": 5537,
      "MUL": 5538,
      "WAIT": 5539,
      "inux": 5540,
      "argv": 5541,
      "Panel": 5542,
      "conv": 5543,
      "'))": 5544,
      "hook": 5545,
      "DEC": 5546,
      "NFT": 5547,
      "gg": 5548,
      "Ġnodes": 5549,
      "parameters": 5550,
      "kw": 5551,
      "vas": 5552,
      "Ġsetup": 5553,
      "Ġoptional": 5554,
      "Ġ48": 5555,
      "scope": 5556,
      "widget": 5557,
      "idi": 5558,
      "CONST": 5559,
      "lik": 5560,
      "ĠPosition": 5561,
      "ĠĠĠĠĠĠĠĠĠĠĠĠĠĠĠĠĠĠĠĠĠĠĠĠĠĠĠĠĠĠĠĠĠĠĠĠĠĠ": 5562,
      "Ġmacro": 5563,
      "crtc": 5564,
      "Ġduring": 5565,
      "ĠwireType": 5566,
      "Ġrelease": 5567,
      "Ġraise": 5568,
      "groups": 5569,
      "hedul": 5570,
      "Timer": 5571,
      "rep": 5572,
      "Ġfore": 5573,
      "menu": 5574,
      "prom": 5575,
      "ATOR": 5576,
      "0002": 5577,
      "ĠKEY": 5578,
      "Dec": 5579,
      "QUAL": 5580,
      "5555": 5581,
      "Sn": 5582,
      "poll": 5583,
      "XML": 5584,
      "Sync": 5585,
      "SQL": 5586,
      "Ġfont": 5587,
      "super": 5588,
      "BUSY": 5589,
      "unique": 5590,
      "OPT": 5591,
      "Ġmetadata": 5592,
      "ĠReset": 5593,
      "ffers": 5594,
      "Power": 5595,
      "Ġdig": 5596,
      "fifo": 5597,
      "ĠSN": 5598,
      "ACTIVE": 5599,
      ")-": 5600,
      "HAS": 5601,
      "Ġfailure": 5602,
      "Ġrequests": 5603,
      "Ġgot": 5604,
      "mul": 5605,
      "fixed": 5606,
      "culate": 5607,
      "Ġvolatile": 5608,
      "COMM": 5609,
      "WITH": 5610,
      "NA": 5611,
      "ä»": 5612,
      "cpi": 5613,
      "_->": 5614,
      "¿½": 5615,
      "(%": 5616,
      "clone": 5617,
      "drvdata": 5618,
      "Ġ50": 5619,
      "cg": 5620,
      "lative": 5621,
      "EF": 5622,
      "OBJECT": 5623,
      "Ġdisabled": 5624,
      "rot": 5625,
      "Multi": 5626,
      "Ġmember": 5627,
      "Click": 5628,
      "Ġchanged": 5629,
      "AUTH": 5630,
      "Directory": 5631,
      "AVE": 5632,
      "vcpu": 5633,
      "ĠMB": 5634,
      "PRESS": 5635,
      "RESERV": 5636,
      "ĠBCM": 5637,
      "BD": 5638,
      "GIN": 5639,
      "encode": 5640,
      "Ġiterator": 5641,
      "lap": 5642,
      "adv": 5643,
      "').": 5644,
      "ĠDAMAGES": 5645,
      "zure": 5646,
      "Prop": 5647,
      "------------------------------------------------": 5648,
      "=!": 5649,
      "###": 5650,
      "ĠFalse": 5651,
      "SPEC": 5652,
      ".\"": 5653,
      "ĠRedistributions": 5654,
      "constant": 5655,
      "FACE": 5656,
      "itu": 5657,
      "........": 5658,
      "VERT": 5659,
      "aff": 5660,
      "915": 5661,
      "iddle": 5662,
      "ĠChannel": 5663,
      "Import": 5664,
      "tries": 5665,
      "EXIT": 5666,
      "AUD": 5667,
      "Step": 5668,
      "Ġpattern": 5669,
      "Ġ\"-": 5670,
      "Ġ{};": 5671,
      "Ġcontroller": 5672,
      "getName": 5673,
      "Socket": 5674,
      "havior": 5675,
      "ĠSOC": 5676,
      "ACKE": 5677,
      "Ġdw": 5678,
      "mu": 5679,
      "optional": 5680,
      "assertEquals": 5681,
      "Ġaccept": 5682,
      "Ġattributes": 5683,
      "ALIGN": 5684,
      "ĠPFNGL": 5685,
      "anaged": 5686,
      "Ġencoding": 5687,
      "FALSE": 5688,
      "CACHE": 5689,
      "lim": 5690,
      "rw": 5691,
      "words": 5692,
      "gu": 5693,
      "road": 5694,
      "ĠUART": 5695,
      "Sprintf": 5696,
      "Rep": 5697,
      "Signal": 5698,
      "Condition": 5699,
      "termin": 5700,
      "ĠResult": 5701,
      "RESERVED": 5702,
      "Real": 5703,
      "Ġpool": 5704,
      "sect": 5705,
      "headers": 5706,
      "random": 5707,
      "Ġhead": 5708,
      "Ġ256": 5709,
      "Common": 5710,
      "Ġsup": 5711,
      "ever": 5712,
      "ĠINCLUDING": 5713,
      "Word": 5714,
      "symbol": 5715,
      "Conn": 5716,
      "]*": 5717,
      "Section": 5718,
      "delta": 5719,
      "FORM": 5720,
      "Ġ(%": 5721,
      "anner": 5722,
      "ambda": 5723,
      "Pair": 5724,
      "Ġtransfer": 5725,
      "ĠĉĉĉĠĠĠĠĠ": 5726,
      "RETURN": 5727,
      "job": 5728,
      "-\\": 5729,
      "nchron": 5730,
      "iform": 5731,
      "Stop": 5732,
      "ĠXML": 5733,
      "^^": 5734,
      "ï¿½": 5735,
      "xFFFFFFFF": 5736,
      "REQUEST": 5737,
      "precated": 5738,
      "Clear": 5739,
      "asure": 5740,
      "ĠLOG": 5741,
      "Unmarshal": 5742,
      "Ġfill": 5743,
      "Ġavoid": 5744,
      "INCLUDING": 5745,
      "Ġscope": 5746,
      "Ġpresent": 5747,
      "ĠMicrosoft": 5748,
      "ks": 5749,
      "SEQU": 5750,
      "entication": 5751,
      "lv": 5752,
      "Ġphy": 5753,
      "cover": 5754,
      "Ġcomplete": 5755,
      "Constants": 5756,
      "Ġslot": 5757,
      "memset": 5758,
      "encoder": 5759,
      "cu": 5760,
      "PACK": 5761,
      "ili": 5762,
      "drop": 5763,
      "Ġentity": 5764,
      "properties": 5765,
      "Ġtrigger": 5766,
      "ĠAs": 5767,
      "Ġwarning": 5768,
      "gid": 5769,
      "manager": 5770,
      "pattern": 5771,
      "123": 5772,
      "80000000": 5773,
      "Ġperform": 5774,
      "bat": 5775,
      "ĠContext": 5776,
      "reflect": 5777,
      "+=": 5778,
      "since": 5779,
      "icient": 5780,
      "plied": 5781,
      "lation": 5782,
      "Wrapper": 5783,
      "HIGH": 5784,
      "tun": 5785,
      "package": 5786,
      "children": 5787,
      "Ġbelow": 5788,
      "+'": 5789,
      "ErrUnexpected": 5790,
      "ĠPORT": 5791,
      "***": 5792,
      "sembly": 5793,
      "Temp": 5794,
      "CTOR": 5795,
      "METHOD": 5796,
      "Ġseq": 5797,
      "izes": 5798,
      "ffix": 5799,
      "wq": 5800,
      "Ġtypeof": 5801,
      "ĠEN": 5802,
      "regmap": 5803,
      "trie": 5804,
      "Ġ27": 5805,
      "Ġ'/": 5806,
      "Stats": 5807,
      "comment": 5808,
      "bm": 5809,
      "aration": 5810,
      "Ġgraph": 5811,
      "Off": 5812,
      "export": 5813,
      "Each": 5814,
      "sf": 5815,
      "egr": 5816,
      "ĠDATA": 5817,
      "aterial": 5818,
      "dom": 5819,
      "ĠResource": 5820,
      "Ġsql": 5821,
      "ErrUnexpectedEOF": 5822,
      "BN": 5823,
      "ĠURL": 5824,
      "Ġcause": 5825,
      "LEFT": 5826,
      "ĠPROVI": 5827,
      "IFY": 5828,
      "zip": 5829,
      "Pixel": 5830,
      "scroll": 5831,
      "expect": 5832,
      "LETE": 5833,
      "]],": 5834,
      "OPEN": 5835,
      "Ġieee": 5836,
      "1111": 5837,
      "maining": 5838,
      "Ġcalls": 5839,
      "Fl": 5840,
      "Ġway": 5841,
      "blocks": 5842,
      "Ġallowed": 5843,
      "Ġchip": 5844,
      "MAN": 5845,
      "Grid": 5846,
      "Des": 5847,
      "ĠWith": 5848,
      "cursor": 5849,
      "Ġ##": 5850,
      "drm": 5851,
      "helper": 5852,
      "application": 5853,
      "iagnost": 5854,
      "Product": 5855,
      "Private": 5856,
      "ands": 5857,
      "Lower": 5858,
      "Ġmove": 5859,
      "Ġdat": 5860,
      "mer": 5861,
      "Ġtitle": 5862,
      "Ġmeans": 5863,
      "Ġdoc": 5864,
      "Ġcontribut": 5865,
      "sumer": 5866,
      "CFGR": 5867,
      "Ġpop": 5868,
      "Ġgu": 5869,
      "ĠPHY": 5870,
      "]:": 5871,
      "validate": 5872,
      "Clock": 5873,
      "Ġ40": 5874,
      "åĲ": 5875,
      "feature": 5876,
      "screen": 5877,
      "ĠSPE": 5878,
      "Ġfr": 5879,
      "ĠPROVIDED": 5880,
      "Ġwhat": 5881,
      "RST": 5882,
      "ilt": 5883,
      "Nodes": 5884,
      "Ġrandom": 5885,
      "found": 5886,
      "ROTO": 5887,
      "Ġpair": 5888,
      "igen": 5889,
      "Normal": 5890,
      "controller": 5891,
      "resources": 5892,
      "ipheral": 5893,
      "Ġruntime": 5894,
      "Ġconstructor": 5895,
      "malloc": 5896,
      "NOWN": 5897,
      "LOB": 5898,
      "104": 5899,
      "aft": 5900,
      "ĠĉĉĉĊ": 5901,
      "Ġlayer": 5902,
      "ENR": 5903,
      "likely": 5904,
      "Ġreadonly": 5905,
      "Ġmock": 5906,
      "builder": 5907,
      "profile": 5908,
      "ISR": 5909,
      "Ġextra": 5910,
      "none": 5911,
      "Events": 5912,
      "Me": 5913,
      "ĠDisable": 5914,
      "payload": 5915,
      "ĠSHALL": 5916,
      "qt": 5917,
      "HTTP": 5918,
      "Ġedge": 5919,
      "ĠDI": 5920,
      "Ġtheir": 5921,
      "WISE": 5922,
      "SIOC": 5923,
      "ACCESS": 5924,
      "127": 5925,
      "gate": 5926,
      "ler": 5927,
      "STER": 5928,
      "Ġexecut": 5929,
      "Ġcs": 5930,
      "ĠSU": 5931,
      "Headers": 5932,
      "ĠWindow": 5933,
      "ĠAUT": 5934,
      "bg": 5935,
      "ĠBuffer": 5936,
      "operator": 5937,
      "bcm": 5938,
      "orizont": 5939,
      "Ġtransaction": 5940,
      "ĠHash": 5941,
      "ULONG": 5942,
      "STANCE": 5943,
      "Fatal": 5944,
      "product": 5945,
      "ĠMT": 5946,
      "Ġkeep": 5947,
      "Ġix": 5948,
      "ĠWHE": 5949,
      "mr": 5950,
      "RED": 5951,
      "ONLY": 5952,
      "mouse": 5953,
      "RAM": 5954,
      "align": 5955,
      "PIPE": 5956,
      "Ġrefer": 5957,
      "ï¿½ï¿½": 5958,
      "LOCAL": 5959,
      "ĠOffset": 5960,
      "vf": 5961,
      "Ġsec": 5962,
      "ĠMAC": 5963,
      "Ġevery": 5964,
      "docs": 5965,
      "FIN": 5966,
      "cq": 5967,
      "ze": 5968,
      "notify": 5969,
      "Ġfilename": 5970,
      "Ġconn": 5971,
      "olute": 5972,
      "convert": 5973,
      "eval": 5974,
      "Append": 5975,
      "peg": 5976,
      "ELE": 5977,
      "Activity": 5978,
      "Ñģ": 5979,
      "ĠLIABLE": 5980,
      "ĠPre": 5981,
      "ANT": 5982,
      "urrency": 5983,
      "Ġbt": 5984,
      "ĠWHETHER": 5985,
      "OUTPUT": 5986,
      "ĠOper": 5987,
      "bad": 5988,
      "NL": 5989,
      "AX": 5990,
      "alet": 5991,
      "Ġuses": 5992,
      "ENA": 5993,
      "Ġhref": 5994,
      "USART": 5995,
      "Ġ*(": 5996,
      "ifiers": 5997,
      "cy": 5998,
      "orest": 5999,
      "`.": 6000,
      "CAL": 6001,
      "Ġgenerate": 6002,
      "admin": 6003,
      "Ġstorage": 6004,
      "Ġpri": 6005,
      "ĠARISING": 6006,
      "istics": 6007,
      "========================================================================": 6008,
      "assign": 6009,
      "Media": 6010,
      "errno": 6011,
      "fusion": 6012,
      "ĠAF": 6013,
      "FLOW": 6014,
      "front": 6015,
      "assertEqual": 6016,
      "xfb": 6017,
      "ĠImGui": 6018,
      "rout": 6019,
      "dn": 6020,
      "vers": 6021,
      "Ġ'%": 6022,
      "pear": 6023,
      "Constraint": 6024,
      "cipher": 6025,
      "ANK": 6026,
      "_)": 6027,
      "RANGE": 6028,
      "Ġ/****************************************************************************": 6029,
      "ĠSTAT": 6030,
      "ration": 6031,
      "Sort": 6032,
      "EDTLS": 6033,
      "Zero": 6034,
      "020": 6035,
      "AUTO": 6036,
      "INTERNAL": 6037,
      "PCM": 6038,
      "Ġcard": 6039,
      "Ġ[\"": 6040,
      "Ġheaders": 6041,
      "à¸": 6042,
      "swap": 6043,
      "ĠBO": 6044,
      "peer": 6045,
      "That": 6046,
      "Ġprop": 6047,
      "Ġsig": 6048,
      "traits": 6049,
      "ĠClear": 6050,
      "Ġscan": 6051,
      "omat": 6052,
      "Ġcopies": 6053,
      ":!": 6054,
      "à¤": 6055,
      "ASM": 6056,
      "Ġbutton": 6057,
      "Ġ@{": 6058,
      "ĠProcess": 6059,
      "media": 6060,
      "TRIG": 6061,
      "ĠCONTRACT": 6062,
      "Ġhelp": 6063,
      "Ġneeds": 6064,
      "Ġexplicit": 6065,
      "IDE": 6066,
      "gnore": 6067,
      "descriptor": 6068,
      "ĠHe": 6069,
      "Ġcb": 6070,
      "lower": 6071,
      "clipse": 6072,
      "attrs": 6073,
      "BS": 6074,
      "AE": 6075,
      "recv": 6076,
      "'re": 6077,
      "vt": 6078,
      "Ġconversion": 6079,
      "ACKET": 6080,
      "ĠERR": 6081,
      "security": 6082,
      "Ġ29": 6083,
      "Ġoperations": 6084,
      "Comm": 6085,
      "è¯": 6086,
      "Loader": 6087,
      "ison": 6088,
      "ĠLess": 6089,
      "Files": 6090,
      "ĠSDMA": 6091,
      "ggle": 6092,
      "ĠEXPRESS": 6093,
      "mult": 6094,
      "Tri": 6095,
      "ocus": 6096,
      "HD": 6097,
      "SOCK": 6098,
      "CLI": 6099,
      "(?:": 6100,
      "cloud": 6101,
      "ecess": 6102,
      "Reset": 6103,
      "PLAY": 6104,
      "orizontal": 6105,
      "reply": 6106,
      "_);": 6107,
      "Ġes": 6108,
      "RENT": 6109,
      "Scroll": 6110,
      "FLOAT": 6111,
      "Find": 6112,
      "Fr": 6113,
      "xt": 6114,
      "integer": 6115,
      "PEND": 6116,
      "Ġcell": 6117,
      "pdata": 6118,
      "ony": 6119,
      "Ġjob": 6120,
      "catch": 6121,
      "Single": 6122,
      "NOR": 6123,
      "extra": 6124,
      "ĠPR": 6125,
      "Ġadapter": 6126,
      "After": 6127,
      "kind": 6128,
      "bose": 6129,
      "mpt": 6130,
      "Ġextension": 6131,
      "Ġdatabase": 6132,
      "Pod": 6133,
      "Ġbox": 6134,
      "jo": 6135,
      "DY": 6136,
      "strings": 6137,
      "ĠMX": 6138,
      "edge": 6139,
      "dentials": 6140,
      "ĠPointer": 6141,
      "CONNE": 6142,
      "ITS": 6143,
      "ĠNet": 6144,
      "ĠGo": 6145,
      "ĠSET": 6146,
      "ĠDEFAULT": 6147,
      "bitmap": 6148,
      "ETHER": 6149,
      "Ġendif": 6150,
      "Ġpy": 6151,
      "Move": 6152,
      "tage": 6153,
      "*,": 6154,
      "AK": 6155,
      "dices": 6156,
      "uf": 6157,
      "Ġvia": 6158,
      "Ġfs": 6159,
      "after": 6160,
      "ulate": 6161,
      "unknown": 6162,
      "rp": 6163,
      "Ġschema": 6164,
      "RGB": 6165,
      "quires": 6166,
      "pub": 6167,
      "GLE": 6168,
      "attach": 6169,
      "}),": 6170,
      "ALLOC": 6171,
      "ĠGoogle": 6172,
      "Flow": 6173,
      "PPROTO": 6174,
      "IOC": 6175,
      "FromString": 6176,
      "0000000000000000": 6177,
      "SV": 6178,
      "SING": 6179,
      "Ġcollection": 6180,
      "âĶĢ": 6181,
      "cons": 6182,
      "Ġlogger": 6183,
      "Selected": 6184,
      "Ġtrace": 6185,
      "Ġfix": 6186,
      "wp": 6187,
      "Ġcontaining": 6188,
      "ampl": 6189,
      "Ġcompat": 6190,
      "=-": 6191,
      "Ġpt": 6192,
      "ĠDelete": 6193,
      "click": 6194,
      "xaa": 6195,
      "Ġden": 6196,
      "Ġlook": 6197,
      "My": 6198,
      "variable": 6199,
      "Ġshared": 6200,
      "ĠAb": 6201,
      "Ġsync": 6202,
      "Ġdraw": 6203,
      "ISTER": 6204,
      "unregister": 6205,
      "category": 6206,
      "center": 6207,
      "ILED": 6208,
      "help": 6209,
      "serial": 6210,
      "LV": 6211,
      "Simple": 6212,
      "Ġ{\\": 6213,
      "ĠSE": 6214,
      "TT": 6215,
      "Ġæ": 6216,
      "stderr": 6217,
      "etime": 6218,
      "Into": 6219,
      "Ġcharacters": 6220,
      "QUEUE": 6221,
      "ENTI": 6222,
      "NI": 6223,
      "strict": 6224,
      "Success": 6225,
      "Effect": 6226,
      "ather": 6227,
      "aits": 6228,
      "004": 6229,
      "ĠMSG": 6230,
      "HEAD": 6231,
      "pace": 6232,
      "Database": 6233,
      "ĠCLK": 6234,
      "forms": 6235,
      "Gen": 6236,
      "LIMIT": 6237,
      "Audio": 6238,
      "Release": 6239,
      "ĠDevice": 6240,
      "Ġfeature": 6241,
      "------": 6242,
      "INS": 6243,
      "Ids": 6244,
      "Ġencode": 6245,
      "account": 6246,
      "Ġvisit": 6247,
      "ĠĉĠĠĠĠĠĠ": 6248,
      "Ob": 6249,
      "batch": 6250,
      "prepare": 6251,
      "alette": 6252,
      "crypto": 6253,
      "\"/>": 6254,
      "Cursor": 6255,
      "Ġexisting": 6256,
      "Counter": 6257,
      "Ġperson": 6258,
      "amaz": 6259,
      "ĠMethod": 6260,
      "Ø§": 6261,
      "PIX": 6262,
      "-------------": 6263,
      "Ġmerge": 6264,
      "120": 6265,
      "ĠIOException": 6266,
      "COUNTER": 6267,
      "Export": 6268,
      "Ð¾Ð": 6269,
      "EMP": 6270,
      "ĠGets": 6271,
      "__);": 6272,
      "Ġhardware": 6273,
      "Ġå": 6274,
      "ROW": 6275,
      "ĠOTHERWISE": 6276,
      "AW": 6277,
      "Ġer": 6278,
      "ilities": 6279,
      "poration": 6280,
      "[(": 6281,
      "watch": 6282,
      "edit": 6283,
      "ysis": 6284,
      "ulk": 6285,
      "hp": 6286,
      "resses": 6287,
      "istic": 6288,
      "compare": 6289,
      "Depth": 6290,
      "Ġbar": 6291,
      "amazon": 6292,
      "avig": 6293,
      "ITERATION": 6294,
      "Tags": 6295,
      "ĠTask": 6296,
      "ĠConvert": 6297,
      "andlers": 6298,
      "EXEC": 6299,
      "Warning": 6300,
      "Before": 6301,
      "ĠĉĠĠ": 6302,
      "ĠĉĉĉĉĠĠĠĠ": 6303,
      "selected": 6304,
      "ĠĠĠĠĠĠĠĠĠĠĠĠĠĠĠĠĠĠĠĠĠĠĠĠĠĠĠĠĠĠĠĠĠĠĠĠĠĠĠĠĠĠĠĠ": 6305,
      "MISC": 6306,
      "ADDRESS": 6307,
      "forward": 6308,
      "interval": 6309,
      "scsi": 6310,
      "curs": 6311,
      "ĠIF": 6312,
      "INTR": 6313,
      "acl": 6314,
      "ĠAuthors": 6315,
      "Bound": 6316,
      "ENDOR": 6317,
      "WOR": 6318,
      "Category": 6319,
      "imitive": 6320,
      "Ġstrict": 6321,
      "Ġexists": 6322,
      "ĠTORT": 6323,
      "ĠImp": 6324,
      "AIL": 6325,
      "aced": 6326,
      "ĠWeb": 6327,
      "alias": 6328,
      "Ġdelay": 6329,
      "Ġblocks": 6330,
      "Ġanother": 6331,
      "ĠCorporation": 6332,
      "union": 6333,
      "reser": 6334,
      "AY": 6335,
      ">.": 6336,
      "Ġacpi": 6337,
      "(:": 6338,
      "alysis": 6339,
      "Ġidentifier": 6340,
      "Ġlower": 6341,
      "Ġpc": 6342,
      "dynamic": 6343,
      "Ġ@}": 6344,
      "weight": 6345,
      "ĠLoad": 6346,
      "logy": 6347,
      "GENER": 6348,
      "-+-+": 6349,
      "ube": 6350,
      "generic": 6351,
      "Ġincluding": 6352,
      "Ġforeach": 6353,
      "}/": 6354,
      "ĠDAC": 6355,
      "MAIN": 6356,
      "Ġpayload": 6357,
      "ĠGTEST": 6358,
      "getValue": 6359,
      "Ġremoved": 6360,
      "ĠCore": 6361,
      "DIG": 6362,
      "mbed": 6363,
      "allel": 6364,
      "Ġcp": 6365,
      "attributes": 6366,
      "ĠOther": 6367,
      "Ġdepth": 6368,
      "success": 6369,
      "rpc": 6370,
      "Ġ*****************************************************************************": 6371,
      "sup": 6372,
      "umb": 6373,
      "Ġ60": 6374,
      "Mouse": 6375,
      "HASH": 6376,
      "Ġusage": 6377,
      "cpp": 6378,
      "Ġstill": 6379,
      "Game": 6380,
      "Ġ\".": 6381,
      "Registry": 6382,
      "oston": 6383,
      "THREAD": 6384,
      "ios": 6385,
      "rece": 6386,
      "Rad": 6387,
      "Ġcorresponding": 6388,
      "ĠPB": 6389,
      "Ġtests": 6390,
      "Ġge": 6391,
      "Sl": 6392,
      "ãĢĤ": 6393,
      "\"\"\"": 6394,
      "ĠMake": 6395,
      "Ġrequested": 6396,
      "ĠIter": 6397,
      "ĠEFI": 6398,
      "010": 6399,
      "ĠColor": 6400,
      "Results": 6401,
      "007": 6402,
      "ea": 6403,
      "Pop": 6404,
      "Ġrv": 6405,
      "Db": 6406,
      "ĠĉĉĠĠĠĠ": 6407,
      "Ġtimes": 6408,
      "Ġleast": 6409,
      "Ġmight": 6410,
      "Ġdelta": 6411,
      "ĠOB": 6412,
      "warning": 6413,
      "ĠFROM": 6414,
      "210": 6415,
      "ĠBoston": 6416,
      "tle": 6417,
      "gnu": 6418,
      "Ġrad": 6419,
      "PKT": 6420,
      "Ġrepresentation": 6421,
      "ĠĠĠĠĠĠĠĠĠĠĠĠĠĠĠĠĠĠĠĠĠĠĠĠĠĠĠĠĠĠĠĠĠĠĠĠĠĠĠĠĠĠ": 6422,
      "Fix": 6423,
      "curr": 6424,
      "llvm": 6425,
      "ĠHTTP": 6426,
      "Required": 6427,
      "Screen": 6428,
      "FORCE": 6429,
      "9999": 6430,
      "typ": 6431,
      "Ġmost": 6432,
      "ĠPath": 6433,
      "ĠPAGE": 6434,
      "mgr": 6435,
      "cogn": 6436,
      "agic": 6437,
      "exists": 6438,
      "Ġms": 6439,
      "WL": 6440,
      "Ġabs": 6441,
      "Ġstored": 6442,
      "Ġrunning": 6443,
      "Rec": 6444,
      "features": 6445,
      "ĠAct": 6446,
      "operation": 6447,
      "sid": 6448,
      "VF": 6449,
      "COPY": 6450,
      "alth": 6451,
      "Conf": 6452,
      "Show": 6453,
      "Ġ\"+": 6454,
      "Groups": 6455,
      "ĠĠĠĠĠĠĠĠĠĠĠĠĠĠĠĠĠĠĠĠĠĠĠĠĠĠĠĠĠĠĠĠĠĠĠĠĠĠĠĠĠ": 6456,
      "HTML": 6457,
      "AMETER": 6458,
      "hip": 6459,
      "Failure": 6460,
      "ĠLesser": 6461,
      "'])": 6462,
      "Ġappro": 6463,
      ")+": 6464,
      "Ġmpl": 6465,
      "Ġplace": 6466,
      "Total": 6467,
      "tip": 6468,
      "Ġsimple": 6469,
      "ĠPoint": 6470,
      "ookup": 6471,
      "FOLD": 6472,
      "Bean": 6473,
      "Ġcondition": 6474,
      "Repository": 6475,
      "ores": 6476,
      "Feature": 6477,
      "FIR": 6478,
      "jection": 6479,
      "FromRange": 6480,
      "ĠDet": 6481,
      "VENDOR": 6482,
      "plane": 6483,
      "Metric": 6484,
      "EXP": 6485,
      "hc": 6486,
      "Ġtransform": 6487,
      "MATCH": 6488,
      "00000002": 6489,
      "âĢ": 6490,
      "peat": 6491,
      "High": 6492,
      "FieldLocation": 6493,
      "0018": 6494,
      "LONG": 6495,
      "formed": 6496,
      "agent": 6497,
      "merge": 6498,
      "Ġrhs": 6499,
      "Ġcluster": 6500,
      "ordered": 6501,
      "NEW": 6502,
      "endar": 6503,
      "maskFromRange": 6504,
      "hr": 6505,
      "Static": 6506,
      "Ġaff": 6507,
      "PASS": 6508,
      "cluster": 6509,
      "DV": 6510,
      "_<": 6511,
      "urpose": 6512,
      "Fixed": 6513,
      "ench": 6514,
      "structure": 6515,
      ":\\": 6516,
      "ĠChar": 6517,
      "Ġrtl": 6518,
      "DateTime": 6519,
      "00001": 6520,
      "axis": 6521,
      "pet": 6522,
      "Ġ'<": 6523,
      "GRP": 6524,
      "Fin": 6525,
      "Pipe": 6526,
      "Ġring": 6527,
      "mg": 6528,
      "Span": 6529,
      "itude": 6530,
      "Ġ'\"": 6531,
      "ecessary": 6532,
      "ANY": 6533,
      "encoding": 6534,
      "ONT": 6535,
      "Details": 6536,
      "æķ": 6537,
      "Ġapi": 6538,
      "emu": 6539,
      "sem": 6540,
      "ysical": 6541,
      "csi": 6542,
      "sun": 6543,
      "Ġinitialize": 6544,
      "come": 6545,
      "Ġchanges": 6546,
      "ĠQString": 6547,
      "ĠBSD": 6548,
      "iomem": 6549,
      "Ġui": 6550,
      "Ġmessages": 6551,
      "hl": 6552,
      "MIC": 6553,
      "LC": 6554,
      "ĠVar": 6555,
      "0004": 6556,
      "ĀĀĀĀĀĀĀĀ": 6557,
      "Program": 6558,
      "FREE": 6559,
      "reater": 6560,
      "models": 6561,
      "Ġallocate": 6562,
      "ulation": 6563,
      "IBUTORS": 6564,
      "Convert": 6565,
      "bucket": 6566,
      "Edge": 6567,
      "Ġ\");": 6568,
      "ĠService": 6569,
      "tb": 6570,
      "SCAN": 6571,
      "Interval": 6572,
      "Sup": 6573,
      "nn": 6574,
      "SIB": 6575,
      "Priority": 6576,
      "INSTANCE": 6577,
      "striction": 6578,
      "SUPPORTED": 6579,
      "Ġhapp": 6580,
      "ital": 6581,
      "Statement": 6582,
      "Ġnr": 6583,
      "inv": 6584,
      "STRUCT": 6585,
      "Ġgrant": 6586,
      "Ġeffect": 6587,
      "Ġ``": 6588,
      "stride": 6589,
      "osite": 6590,
      "Video": 6591,
      "epi": 6592,
      "////////////////////////////////////////////////////////////////////////////////////////////////////////////////////////////////////////////////////////////////////////////////////////////////////////////////////////////////////////////////////////////////": 6593,
      "ĠCONTRIBUTORS": 6594,
      ">\\": 6595,
      "ĠOptional": 6596,
      "argument": 6597,
      "Sock": 6598,
      "multi": 6599,
      "ioctl": 6600,
      "ĠRun": 6601,
      "proxy": 6602,
      "dx": 6603,
      "ĠParse": 6604,
      "usive": 6605,
      "UInt": 6606,
      "Connect": 6607,
      "gon": 6608,
      "ĠĠĠĠĠĠĠĠĠĠĠĠĠĠĠĠĠĠĠĠĠĠĠĠĠĠĠĠĠĠĠĠĠĠĠĠĠĠĠĠĠĠĠĠĠĠĠ": 6609,
      "ĠImage": 6610,
      "Ġsepar": 6611,
      "nic": 6612,
      "remote": 6613,
      "fast": 6614,
      "endpoint": 6615,
      "Ġsmall": 6616,
      "uest": 6617,
      "116": 6618,
      "VICE": 6619,
      "Collections": 6620,
      "Ġcaller": 6621,
      "Ġ\"<": 6622,
      "ĠHE": 6623,
      "Owner": 6624,
      "Ġreceiver": 6625,
      "single": 6626,
      "ĠIllegal": 6627,
      "Ġreason": 6628,
      "\"}": 6629,
      "protected": 6630,
      "105": 6631,
      "ĠSQL": 6632,
      "Sm": 6633,
      "Rx": 6634,
      "Area": 6635,
      "Shader": 6636,
      "coll": 6637,
      "UTF": 6638,
      "Ġul": 6639,
      "Save": 6640,
      "ĠGLint": 6641,
      "ino": 6642,
      "lb": 6643,
      "ĠPLL": 6644,
      "logger": 6645,
      "OPTION": 6646,
      "URI": 6647,
      "Ġfprintf": 6648,
      "pcie": 6649,
      "Ġcurrently": 6650,
      "CONT": 6651,
      "Inv": 6652,
      "ĠSk": 6653,
      "GroupName": 6654,
      "','\\": 6655,
      "UNKNOWN": 6656,
      "PEG": 6657,
      "kit": 6658,
      "basic": 6659,
      "HDR": 6660,
      "ĠVM": 6661,
      "execute": 6662,
      "OVER": 6663,
      "modules": 6664,
      "Decoder": 6665,
      "RESOURCE": 6666,
      "Ġ1024": 6667,
      "udit": 6668,
      "Ġvariables": 6669,
      "Progress": 6670,
      "required": 6671,
      "Ġside": 6672,
      "Ġtri": 6673,
      "ĠBe": 6674,
      "Join": 6675,
      "Comment": 6676,
      "Visible": 6677,
      "Uri": 6678,
      "Ġtyp": 6679,
      "ĠFLASH": 6680,
      "tty": 6681,
      "CRC": 6682,
      "Allow": 6683,
      "ARGS": 6684,
      "Day": 6685,
      "Ġrect": 6686,
      "ĠGET": 6687,
      "ota": 6688,
      "LAPI": 6689,
      "atter": 6690,
      "Ġupdated": 6691,
      "å®": 6692,
      "ĠInvalid": 6693,
      "Ġep": 6694,
      "Ġreceive": 6695,
      "PRIV": 6696,
      "Insert": 6697,
      "then": 6698,
      "Ġmany": 6699,
      "dist": 6700,
      "FREQ": 6701,
      "Driver": 6702,
      "hid": 6703,
      "XXX": 6704,
      "çĶ": 6705,
      "LT": 6706,
      "xbb": 6707,
      "Ġcalling": 6708,
      "tion": 6709,
      "(\"/": 6710,
      "period": 6711,
      "ĠĉĉĠĠĠĠĠ": 6712,
      "SEG": 6713,
      "ĠDWORD": 6714,
      "XY": 6715,
      "FM": 6716,
      "DESCRIP": 6717,
      "CIAL": 6718,
      "Ġunion": 6719,
      "grp": 6720,
      "Ġtool": 6721,
      "ĠWIN": 6722,
      "accept": 6723,
      "trics": 6724,
      "IGEN": 6725,
      "))))": 6726,
      "insn": 6727,
      "variant": 6728,
      "EXTI": 6729,
      "ĠPNG": 6730,
      "_[": 6731,
      "Binary": 6732,
      "ĠDebug": 6733,
      "sequence": 6734,
      "Ġsd": 6735,
      "roke": 6736,
      "holder": 6737,
      "Ġpending": 6738,
      "Ġlibc": 6739,
      "usage": 6740,
      "bio": 6741,
      "112": 6742,
      "aterials": 6743,
      "CLR": 6744,
      "packed": 6745,
      "elif": 6746,
      "rier": 6747,
      "andling": 6748,
      "FULL": 6749,
      "reader": 6750,
      "ĠHWIO": 6751,
      "Cloud": 6752,
      "++]": 6753,
      "irr": 6754,
      "SINGLE": 6755,
      "lots": 6756,
      "vmx": 6757,
      "ĠEd": 6758,
      "ĠĉĉĉĉĠĠĠĠĠĠ": 6759,
      "oom": 6760,
      "CLO": 6761,
      "unch": 6762,
      "Ġdecode": 6763,
      "resolve": 6764,
      "Play": 6765,
      "UPDATE": 6766,
      "Ġelif": 6767,
      "Ġ];": 6768,
      "Usage": 6769,
      "Ġdestination": 6770,
      "AIN": 6771,
      "riteria": 6772,
      "IPS": 6773,
      "Go": 6774,
      "Ġsegment": 6775,
      "ĠAmazon": 6776,
      "arshaller": 6777,
      "ryption": 6778,
      "Ġmd": 6779,
      "arp": 6780,
      "Ġ00": 6781,
      "Ġplugin": 6782,
      "Ġspecial": 6783,
      "Ġ([]": 6784,
      "Mac": 6785,
      "ĠCRC": 6786,
      "Operator": 6787,
      "Begin": 6788,
      "Ġverify": 6789,
      "Ġ{'": 6790,
      "Ġresources": 6791,
      "Ġreplace": 6792,
      "Bucket": 6793,
      "Arr": 6794,
      "ble": 6795,
      "Ġremote": 6796,
      "Ġatomic": 6797,
      "STO": 6798,
      "tick": 6799,
      "Ġinstruction": 6800,
      "ENUM": 6801,
      "Replace": 6802,
      "rics": 6803,
      "103": 6804,
      "RPC": 6805,
      "106": 6806,
      "Microsoft": 6807,
      "ond": 6808,
      "extension": 6809,
      "Ġunique": 6810,
      "Ġdirection": 6811,
      "Rules": 6812,
      "bottom": 6813,
      "Ġmatches": 6814,
      "ĠPort": 6815,
      "grid": 6816,
      "Forms": 6817,
      "Ġ*_": 6818,
      "cook": 6819,
      "Identity": 6820,
      "Platform": 6821,
      "wake": 6822,
      "ti": 6823,
      "GC": 6824,
      "strcmp": 6825,
      "Ġ();": 6826,
      "xef": 6827,
      "ILD": 6828,
      "ArgumentException": 6829,
      "imate": 6830,
      "ĠTYPE": 6831,
      "ĠGO": 6832,
      "Ġflow": 6833,
      "ao": 6834,
      "cessed": 6835,
      "role": 6836,
      "Ġlua": 6837,
      "actions": 6838,
      "Ġvideo": 6839,
      "NotNull": 6840,
      "Ġallocated": 6841,
      "ĠFind": 6842,
      "Ġcr": 6843,
      "XT": 6844,
      "Ġps": 6845,
      "Ġwrong": 6846,
      "åħ": 6847,
      "INTERRUP": 6848,
      "uv": 6849,
      "kg": 6850,
      "intel": 6851,
      "LEEP": 6852,
      "Virtual": 6853,
      "ERO": 6854,
      "Ġpriority": 6855,
      "parameter": 6856,
      "INGS": 6857,
      "ICK": 6858,
      "Ġlines": 6859,
      "alg": 6860,
      "para": 6861,
      "Ġ'.": 6862,
      "pv": 6863,
      ")|": 6864,
      "ĠRaw": 6865,
      "ratch": 6866,
      "=\\\"": 6867,
      "IPPROTO": 6868,
      "ĠĠĠĠĠĠĠĠĠĠĠĠĊ": 6869,
      ".*;": 6870,
      "Ġssize": 6871,
      "Ġ[];": 6872,
      "STS": 6873,
      "RG": 6874,
      "ĠHOLD": 6875,
      "\\\",": 6876,
      "ĠClient": 6877,
      "Ali": 6878,
      "APIENTRY": 6879,
      "GPU": 6880,
      "Ġfoo": 6881,
      "Ġaxis": 6882,
      "Resources": 6883,
      "Ġsz": 6884,
      "ĠAlloc": 6885,
      "(/": 6886,
      "riend": 6887,
      "emon": 6888,
      "Acc": 6889,
      "ading": 6890,
      "atalog": 6891,
      "dot": 6892,
      "ĠInitialize": 6893,
      "ĠĉĉĉĉĠĠĠĠĠ": 6894,
      "Ġfixed": 6895,
      "Fn": 6896,
      "MESS": 6897,
      "tuple": 6898,
      "Cor": 6899,
      "Ġdist": 6900,
      "caps": 6901,
      "Attach": 6902,
      "ories": 6903,
      "EXCE": 6904,
      "vi": 6905,
      "EW": 6906,
      "TOP": 6907,
      "Chain": 6908,
      "extend": 6909,
      "Ġvolume": 6910,
      "Vo": 6911,
      "Ġbad": 6912,
      "adeon": 6913,
      "FEATURE": 6914,
      "Ġcrypto": 6915,
      "interpret": 6916,
      "LOT": 6917,
      "mar": 6918,
      "QUI": 6919,
      "dates": 6920,
      "abilities": 6921,
      "Ġexternal": 6922,
      "Ġspeed": 6923,
      "iS": 6924,
      "@@": 6925,
      "ĠERROR": 6926,
      "ĠPIN": 6927,
      "SAMPLE": 6928,
      "verify": 6929,
      "istration": 6930,
      "escape": 6931,
      "Ġconsole": 6932,
      "connector": 6933,
      "Ctx": 6934,
      "GU": 6935,
      "ĠCommand": 6936,
      "NotFound": 6937,
      "Ġcompute": 6938,
      "vlan": 6939,
      "border": 6940,
      "Ġselection": 6941,
      "Batch": 6942,
      "Proc": 6943,
      "Ġ80": 6944,
      "ĠLP": 6945,
      "Timestamp": 6946,
      "10000": 6947,
      "Machine": 6948,
      "Ġstandard": 6949,
      "ĠNe": 6950,
      "ĠMatrix": 6951,
      "rand": 6952,
      "Compare": 6953,
      "ĉĉĉĉĉĉĉĉ": 6954,
      "compress": 6955,
      "Card": 6956,
      "Ġmodification": 6957,
      "Ġretrie": 6958,
      "mix": 6959,
      "Ġpolicy": 6960,
      "LOBAL": 6961,
      "STEM": 6962,
      "undefined": 6963,
      "heduler": 6964,
      "indexOf": 6965,
      "aligned": 6966,
      "ployment": 6967,
      "irqrestore": 6968,
      "Ġ!(": 6969,
      "ĠHttp": 6970,
      "ned": 6971,
      "/{": 6972,
      "Information": 6973,
      "è¿": 6974,
      "plan": 6975,
      "Ġalpha": 6976,
      "ffffff": 6977,
      "STATS": 6978,
      "äº": 6979,
      "PINCTRL": 6980,
      "neg": 6981,
      "']['": 6982,
      "adev": 6983,
      "before": 6984,
      "Zone": 6985,
      "GS": 6986,
      "TEMPL": 6987,
      "pendency": 6988,
      "Ġprior": 6989,
      "Ġforce": 6990,
      "00007": 6991,
      "CONN": 6992,
      "km": 6993,
      "Ġreader": 6994,
      "ĠCM": 6995,
      "azy": 6996,
      "xaf": 6997,
      "Tests": 6998,
      "olygon": 6999,
      "ĠGroup": 7000,
      "ents": 7001,
      "fh": 7002,
      "available": 7003,
      "resume": 7004,
      "REGISTER": 7005,
      "Ġcc": 7006,
      "bridge": 7007,
      "gra": 7008,
      "ĠTag": 7009,
      "ceed": 7010,
      "Rows": 7011,
      "commit": 7012,
      "RESH": 7013,
      "Ġcompiler": 7014,
      "Dig": 7015,
      "marks": 7016,
      "asc": 7017,
      "Ġsynchron": 7018,
      "ĠThese": 7019,
      "114": 7020,
      "Ġdict": 7021,
      "RU": 7022,
      "ĠLe": 7023,
      "velo": 7024,
      "MESSAGE": 7025,
      "Ġomap": 7026,
      "160": 7027,
      "except": 7028,
      "Ġensure": 7029,
      "BAR": 7030,
      "timestamp": 7031,
      "rest": 7032,
      "cancel": 7033,
      "tags": 7034,
      "ĠDeep": 7035,
      "RW": 7036,
      "Mess": 7037,
      ":`": 7038,
      "ATTRIB": 7039,
      "Ġcontents": 7040,
      "pix": 7041,
      "Strategy": 7042,
      "results": 7043,
      "ĠFIX": 7044,
      "builtin": 7045,
      "ĠHRESULT": 7046,
      "Ġnever": 7047,
      "Shared": 7048,
      "compiler": 7049,
      "Ġib": 7050,
      "zer": 7051,
      "El": 7052,
      "xbd": 7053,
      "Enumer": 7054,
      "olved": 7055,
      "Bundle": 7056,
      "ĠDEBUG": 7057,
      "vertex": 7058,
      "ĠFilter": 7059,
      "tinu": 7060,
      "XI": 7061,
      "Ġath": 7062,
      "Random": 7063,
      "ĠSV": 7064,
      "Ġyet": 7065,
      "Ġextract": 7066,
      "Ġarea": 7067,
      "RUN": 7068,
      "Ġmeta": 7069,
      "Mesh": 7070,
      "MAG": 7071,
      "where": 7072,
      "ubernet": 7073,
      "ubernetes": 7074,
      "Ġcomput": 7075,
      "Ġkind": 7076,
      "Ġmodified": 7077,
      "volatile": 7078,
      "ĠARM": 7079,
      "Ġ*=": 7080,
      "Standard": 7081,
      "1301": 7082,
      "BCM": 7083,
      "des": 7084,
      "ĠSYS": 7085,
      "Main": 7086,
      "semse": 7087,
      "HO": 7088,
      "Const": 7089,
      "nf": 7090,
      "android": 7091,
      "ĠAUTH": 7092,
      "Ġ~(": 7093,
      "Ġspecify": 7094,
      "Points": 7095,
      "Slot": 7096,
      "ival": 7097,
      "Public": 7098,
      "PROT": 7099,
      "âĶĢâĶĢ": 7100,
      "Describe": 7101,
      "Ġintel": 7102,
      "eclipse": 7103,
      "xfd": 7104,
      "Ġ(&": 7105,
      "direction": 7106,
      "Ġmedi": 7107,
      "Ġnegative": 7108,
      "roadcast": 7109,
      "Ġyaml": 7110,
      "Ġsv": 7111,
      "Ġcomment": 7112,
      "construct": 7113,
      "Merge": 7114,
      "Modified": 7115,
      "Ġnfs": 7116,
      "arison": 7117,
      "ĠTable": 7118,
      "Ġvert": 7119,
      "READY": 7120,
      "Ġbasic": 7121,
      "Ġsplit": 7122,
      "ĠMin": 7123,
      "ĠAny": 7124,
      "Ġdeterm": 7125,
      "VIDE": 7126,
      "FAILURE": 7127,
      "tem": 7128,
      "Ġss": 7129,
      "EQUAL": 7130,
      "Ne": 7131,
      "AUX": 7132,
      "ĠRuntime": 7133,
      "ads": 7134,
      "Ġshape": 7135,
      "seed": 7136,
      "384": 7137,
      "tools": 7138,
      "fetch": 7139,
      "disk": 7140,
      "GATE": 7141,
      "ĠGr": 7142,
      "simple": 7143,
      "Ġdiff": 7144,
      "DELAY": 7145,
      "isEmpty": 7146,
      "actual": 7147,
      "Ġdynamic": 7148,
      "Ġenc": 7149,
      "PARAMETER": 7150,
      "Coord": 7151,
      "Ġnative": 7152,
      "ssi": 7153,
      "102": 7154,
      "Basic": 7155,
      "Services": 7156,
      "Ġtab": 7157,
      "----------": 7158,
      "Tex": 7159,
      "VP": 7160,
      "ĠPlease": 7161,
      "Ġecho": 7162,
      "FAILED": 7163,
      "Ġcompare": 7164,
      "Ġ%[": 7165,
      "ĠStream": 7166,
      "disabled": 7167,
      "WT": 7168,
      "Ġpp": 7169,
      "unlikely": 7170,
      "VR": 7171,
      "changed": 7172,
      "ases": 7173,
      "Route": 7174,
      "sensor": 7175,
      "Ġrows": 7176,
      "Ġvalidate": 7177,
      "Ġ'./": 7178,
      "ĠCS": 7179,
      "chor": 7180,
      "ĠThere": 7181,
      "Ġwriter": 7182,
      "gy": 7183,
      "Ġil": 7184,
      "suspend": 7185,
      "TestCase": 7186,
      "orch": 7187,
      "Ġassume": 7188,
      "Ġbfin": 7189,
      "ĠHAVE": 7190,
      "Ġdirectly": 7191,
      "transfer": 7192,
      "Ġ*)(": 7193,
      "blob": 7194,
      ">=": 7195,
      "uplic": 7196,
      "MEMORY": 7197,
      "ets": 7198,
      "ĠAccess": 7199,
      "volume": 7200,
      "PACKET": 7201,
      ">)": 7202,
      "Ġic": 7203,
      "008": 7204,
      "xac": 7205,
      "xFFFF": 7206,
      "YY": 7207,
      "INTERFACE": 7208,
      "adc": 7209,
      "Encoding": 7210,
      "password": 7211,
      "\"===": 7212,
      "Dst": 7213,
      "sin": 7214,
      "Vert": 7215,
      "Gl": 7216,
      "ĠOS": 7217,
      "Ġknow": 7218,
      "Ġdevices": 7219,
      "mv": 7220,
      "ively": 7221,
      "125": 7222,
      "Ġround": 7223,
      "TEMP": 7224,
      "ENTIAL": 7225,
      "ĠjQuery": 7226,
      "Ġperiod": 7227,
      "132": 7228,
      "priority": 7229,
      "Ġ\"#": 7230,
      "ka": 7231,
      "Ġmaterials": 7232,
      "ĠpostIndex": 7233,
      "fil": 7234,
      "Ġderived": 7235,
      "ookie": 7236,
      "Ġ500": 7237,
      "ĠRemove": 7238,
      "tw": 7239,
      "ĠFrank": 7240,
      "ATOM": 7241,
      "Loop": 7242,
      "Ġpadding": 7243,
      "ReadWrite": 7244,
      "ersistent": 7245,
      "Ġhel": 7246,
      "ICAL": 7247,
      "IFI": 7248,
      "ifth": 7249,
      "ĠArrayList": 7250,
      "ĠEIGEN": 7251,
      "||(": 7252,
      "ĠOnly": 7253,
      "TARGET": 7254,
      "BF": 7255,
      "Ã©": 7256,
      "Ġcursor": 7257,
      "Disable": 7258,
      "Hook": 7259,
      "2110": 7260,
      "BAD": 7261,
      "ĠSUB": 7262,
      "loader": 7263,
      "Ġts": 7264,
      "icker": 7265,
      "Ġwere": 7266,
      "ĠĠĠĠĠĠĠĠĠĠĠĠĠĠĠĠĠĠĠĠĠĠĠĠĠĠĠĠĠĠĠĠĠĠĠĠĠĠĠĠĠĠĠĠĠ": 7267,
      "DX": 7268,
      "Certificate": 7269,
      "Execution": 7270,
      "CLEAR": 7271,
      "ENSOR": 7272,
      "Ġgpio": 7273,
      "Ġcx": 7274,
      "PtrFromString": 7275,
      "transport": 7276,
      "HZ": 7277,
      "Watch": 7278,
      "Ġoccur": 7279,
      "MG": 7280,
      "1234": 7281,
      "aN": 7282,
      "æĸ": 7283,
      "108": 7284,
      "CY": 7285,
      "Ġpages": 7286,
      "Ġlookup": 7287,
      "need": 7288,
      "ĠSend": 7289,
      "Ġdid": 7290,
      "Std": 7291,
      "IVER": 7292,
      "Ġargv": 7293,
      "cert": 7294,
      "pte": 7295,
      "arator": 7296,
      "dai": 7297,
      "Ġ[],": 7298,
      "HandleTypeDef": 7299,
      "kwargs": 7300,
      "ĠProject": 7301,
      "ORDER": 7302,
      "hidden": 7303,
      "ĠACPI": 7304,
      "CREATE": 7305,
      "Ġemit": 7306,
      "ĠSHA": 7307,
      "Ġabstract": 7308,
      "yaml": 7309,
      "icast": 7310,
      "cleanup": 7311,
      "ordinate": 7312,
      "reserved": 7313,
      "Ð°Ð": 7314,
      "cee": 7315,
      "Objects": 7316,
      "Ġretain": 7317,
      "CMP": 7318,
      "Axis": 7319,
      "Direction": 7320,
      "ĠMemory": 7321,
      "ICR": 7322,
      "route": 7323,
      "390": 7324,
      "ĠĉĉĉĉĉĠ": 7325,
      "Elem": 7326,
      "reserve": 7327,
      "Literal": 7328,
      "LCD": 7329,
      "mmc": 7330,
      "DSP": 7331,
      "Operand": 7332,
      "Native": 7333,
      "WE": 7334,
      "World": 7335,
      "editor": 7336,
      "ĠDep": 7337,
      "ĠProto": 7338,
      "Remote": 7339,
      "ĠFloor": 7340,
      "Ġbatch": 7341,
      "pendent": 7342,
      "ĠMod": 7343,
      "Overflow": 7344,
      "ipv": 7345,
      "duration": 7346,
      "Ġpad": 7347,
      "schedule": 7348,
      "Ġkvm": 7349,
      "sha": 7350,
      "Req": 7351,
      "tile": 7352,
      "134": 7353,
      "MED": 7354,
      "224": 7355,
      "ĠCOMP": 7356,
      "pn": 7357,
      "Ġrot": 7358,
      "peated": 7359,
      "ĠDescription": 7360,
      "spring": 7361,
      ",&": 7362,
      "aux": 7363,
      "texture": 7364,
      "Ġtake": 7365,
      "AUDIO": 7366,
      "Ġupper": 7367,
      "Ġlayout": 7368,
      "ĠCurrent": 7369,
      "anced": 7370,
      "Ġcontact": 7371,
      "MSK": 7372,
      "Ġdm": 7373,
      "Ġstrlen": 7374,
      "UNUSED": 7375,
      "MULTI": 7376,
      "AHB": 7377,
      "Ignore": 7378,
      "Encode": 7379,
      "lying": 7380,
      "vals": 7381,
      "locked": 7382,
      "clusive": 7383,
      "ĠML": 7384,
      "Varint": 7385,
      "Second": 7386,
      "original": 7387,
      "ven": 7388,
      "sess": 7389,
      "junit": 7390,
      "MEDI": 7391,
      "TEMPLATE": 7392,
      "trfs": 7393,
      "(()": 7394,
      "Rot": 7395,
      "ILL": 7396,
      "compute": 7397,
      "xbe": 7398,
      "acpi": 7399,
      "Own": 7400,
      "console": 7401,
      ".(": 7402,
      "PPC": 7403,
      "Background": 7404,
      "ĠLine": 7405,
      "elo": 7406,
      "ĠDeepCopy": 7407,
      "Ġnecessary": 7408,
      "ĠSets": 7409,
      "SYN": 7410,
      "fully": 7411,
      "ĠFranklin": 7412,
      "SZ": 7413,
      "SES": 7414,
      "Expected": 7415,
      "ĠMBEDTLS": 7416,
      "ä½": 7417,
      "ĉĊ": 7418,
      "ĠDr": 7419,
      "padding": 7420,
      "band": 7421,
      "diag": 7422,
      "ĠBytePtrFromString": 7423,
      "Ġless": 7424,
      "xbc": 7425,
      "å¤": 7426,
      "IDLE": 7427,
      "DEP": 7428,
      "vd": 7429,
      "HPP": 7430,
      "COMMAND": 7431,
      "dmi": 7432,
      "ACTION": 7433,
      "TIOC": 7434,
      "opcode": 7435,
      "wc": 7436,
      "BLK": 7437,
      "ĠCo": 7438,
      "AES": 7439,
      "Ġ02110": 7440,
      "mesh": 7441,
      "ĠFifth": 7442,
      "pwr": 7443,
      "ĠConfiguration": 7444,
      "OTG": 7445,
      "player": 7446,
      "ĠLocal": 7447,
      "Ġamount": 7448,
      "Ġng": 7449,
      "RESP": 7450,
      "unused": 7451,
      "Ġowner": 7452,
      "Ġatt": 7453,
      "Ġserial": 7454,
      "INTERRUPT": 7455,
      "crc": 7456,
      "ETHERTYPE": 7457,
      "ationToken": 7458,
      "Ġ${": 7459,
      "PCIE": 7460,
      "ĠSec": 7461,
      "EA": 7462,
      "Ġpermitted": 7463,
      "Validation": 7464,
      "PROM": 7465,
      "rsp": 7466,
      "ajor": 7467,
      "sched": 7468,
      "WINDO": 7469,
      "?(": 7470,
      "Ġ36": 7471,
      "ĠPart": 7472,
      "TAIL": 7473,
      "Ġarm": 7474,
      "lish": 7475,
      "ĠBUS": 7476,
      "Ġ(-": 7477,
      "family": 7478,
      "ateway": 7479,
      "Ġalign": 7480,
      "lc": 7481,
      "regex": 7482,
      "EXPR": 7483,
      "%%%%": 7484,
      "condition": 7485,
      "leton": 7486,
      "ĠCan": 7487,
      "lg": 7488,
      "mk": 7489,
      "Ġna": 7490,
      "Ġconstruct": 7491,
      "Segment": 7492,
      "Tensor": 7493,
      "}\",": 7494,
      "Agent": 7495,
      "xab": 7496,
      "ni": 7497,
      "UV": 7498,
      "Abstract": 7499,
      "sim": 7500,
      "ĠGLenum": 7501,
      "Password": 7502,
      "HC": 7503,
      "train": 7504,
      "Ġamd": 7505,
      "Ġscal": 7506,
      "car": 7507,
      "segment": 7508,
      "gp": 7509,
      "Ġevalu": 7510,
      "CLIENT": 7511,
      "omap": 7512,
      "lict": 7513,
      "PID": 7514,
      "JS": 7515,
      "Ġdescribe": 7516,
      "prot": 7517,
      "Ġflush": 7518,
      "Ġexecute": 7519,
      "Ġbuffers": 7520,
      "ĠFrame": 7521,
      ",%": 7522,
      "It": 7523,
      "cplus": 7524,
      "ural": 7525,
      "ĠBoolean": 7526,
      "YPTO": 7527,
      "Metrics": 7528,
      "zalloc": 7529,
      "ĠCopy": 7530,
      "loaded": 7531,
      "ĠPTR": 7532,
      "DN": 7533,
      "Ġaffili": 7534,
      "Supported": 7535,
      "ĠJson": 7536,
      "ORM": 7537,
      "WORK": 7538,
      "Ġpartial": 7539,
      "ocation": 7540,
      "xFC": 7541,
      "'];": 7542,
      "InputStream": 7543,
      "OTE": 7544,
      "SIO": 7545,
      "Split": 7546,
      "language": 7547,
      "FileName": 7548,
      "Term": 7549,
      "Ġ99": 7550,
      "ĠDISCL": 7551,
      "VB": 7552,
      "ĠkInstruction": 7553,
      "Self": 7554,
      "ROP": 7555,
      "writer": 7556,
      "!\\": 7557,
      "generated": 7558,
      "SDMA": 7559,
      "ĠĠĠĊ": 7560,
      "0080": 7561,
      "MTK": 7562,
      "ĠProperty": 7563,
      "Ġ&(": 7564,
      "Put": 7565,
      "resize": 7566,
      "ENODEV": 7567,
      "zM": 7568,
      "orig": 7569,
      "Bounds": 7570,
      "ĠĠĠĠĠĠĠĠĠĠĠĠĠĠĠĠĠĠĠĠĠĠĠĠĠĠĠĠĠĠĠĠĠĠĠĠĠĠĠĠĠĠĠĠĠĠ": 7571,
      "Ġselector": 7572,
      "iffies": 7573,
      "CCR": 7574,
      "NUMBER": 7575,
      "Ġunknown": 7576,
      "ĠPrint": 7577,
      "DONE": 7578,
      "CAST": 7579,
      "External": 7580,
      "Ġpeer": 7581,
      "DAP": 7582,
      "defgroup": 7583,
      "Ġexports": 7584,
      "Ġtick": 7585,
      "Ġengine": 7586,
      "]\\": 7587,
      "Ġautomat": 7588,
      "Ġ//////////////////////////////////////////////////////////////////": 7589,
      "ISO": 7590,
      "Ġtt": 7591,
      "Direct": 7592,
      "115": 7593,
      "ĠSelect": 7594,
      "hide": 7595,
      "irqsave": 7596,
      "Ġ,'": 7597,
      "email": 7598,
      "nel": 7599,
      "Processor": 7600,
      "âĸ": 7601,
      "tensor": 7602,
      "indices": 7603,
      "[],": 7604,
      "Notification": 7605,
      "Language": 7606,
      "Ġpm": 7607,
      "180": 7608,
      "(`": 7609,
      "]));": 7610,
      "xfa": 7611,
      "Graphics": 7612,
      "Ġallows": 7613,
      "Ġ**/": 7614,
      "ICAgICAg": 7615,
      "ves": 7616,
      "cplusplus": 7617,
      "Ġfall": 7618,
      "ifs": 7619,
      "SPEED": 7620,
      "ĠĠĠĠĠĠĠĠĠĠĠĠĠĠĠĠĠĠĠĠĠĠĠĠĠĠĠĠĠĠĠĠĠĠĠĠĠĠĠĠĠĠĠĠĠĠĠĠ": 7621,
      "ĠThread": 7622,
      "Delay": 7623,
      "dep": 7624,
      "Ġrequires": 7625,
      "***/": 7626,
      "ordinates": 7627,
      "Trigger": 7628,
      "Ġ\"[": 7629,
      "rst": 7630,
      "ĠToken": 7631,
      "6666": 7632,
      "Errors": 7633,
      "Encoder": 7634,
      "duc": 7635,
      "Ġcrate": 7636,
      "Ġenough": 7637,
      "Ġoptim": 7638,
      "\"==": 7639,
      "panic": 7640,
      "Ġ45": 7641,
      "Ġ2016": 7642,
      "LAB": 7643,
      "Ġ42": 7644,
      "ĠDECL": 7645,
      "Ġutil": 7646,
      "Ġnothing": 7647,
      "MV": 7648,
      "Renderer": 7649,
      "Surface": 7650,
      "Ġinner": 7651,
      "otion": 7652,
      "provider": 7653,
      "urnal": 7654,
      "CHANGE": 7655,
      "sizei": 7656,
      "ĠStandard": 7657,
      "game": 7658,
      "Annotation": 7659,
      "NFTA": 7660,
      "Lookup": 7661,
      "Arch": 7662,
      "ĠĉĉĉĉĉĠĠ": 7663,
      "Ġaffiliates": 7664,
      "program": 7665,
      "uuid": 7666,
      "IMAGE": 7667,
      "Ġtimestamp": 7668,
      "details": 7669,
      "Exists": 7670,
      "SLEEP": 7671,
      "Ġtf": 7672,
      "StatusCode": 7673,
      "Folder": 7674,
      "ĠMy": 7675,
      "Div": 7676,
      "ApplyConfiguration": 7677,
      "Ġmatching": 7678,
      "xFE": 7679,
      "æķ°": 7680,
      "uintptr": 7681,
      "åĬ": 7682,
      "109": 7683,
      "Chunk": 7684,
      "Ġcases": 7685,
      "RLC": 7686,
      "250": 7687,
      "Decode": 7688,
      "AAAAAAAA": 7689,
      "hex": 7690,
      "Unm": 7691,
      "264": 7692,
      "Ġterm": 7693,
      "OID": 7694,
      "ASN": 7695,
      "Throw": 7696,
      "LB": 7697,
      "ker": 7698,
      "isp": 7699,
      "Ġrepresents": 7700,
      "selector": 7701,
      "ĠAss": 7702,
      "OPER": 7703,
      "Qual": 7704,
      "Vtbl": 7705,
      "ĠETH": 7706,
      "upper": 7707,
      "cred": 7708,
      "801": 7709,
      "GRA": 7710,
      "frames": 7711,
      "Java": 7712,
      "ĠErrInvalid": 7713,
      "ĠFIFO": 7714,
      "Ġ\"_": 7715,
      "ons": 7716,
      "0000007": 7717,
      "Ġpartic": 7718,
      "ĠLong": 7719,
      "107": 7720,
      "VIDEO": 7721,
      "UST": 7722,
      "cookie": 7723,
      "Ġattemp": 7724,
      "Scan": 7725,
      "006": 7726,
      "Ġusers": 7727,
      "Deep": 7728,
      "ĠAction": 7729,
      "ĠModel": 7730,
      "Ġtags": 7731,
      "bank": 7732,
      "Ġfp": 7733,
      "Ġforms": 7734,
      "ĠSo": 7735,
      "dog": 7736,
      "UPLE": 7737,
      "Fill": 7738,
      "bw": 7739,
      "Children": 7740,
      "Ġthose": 7741,
      "Ġprovides": 7742,
      "Sql": 7743,
      "Ġprocessing": 7744,
      "ued": 7745,
      "compatible": 7746,
      "Gu": 7747,
      "Ġpid": 7748,
      "DOM": 7749,
      "rees": 7750,
      "ĠQuery": 7751,
      "cls": 7752,
      "Syscall": 7753,
      "ĠLink": 7754,
      "Ġimplemented": 7755,
      "Ġdes": 7756,
      "cut": 7757,
      "initial": 7758,
      "Exit": 7759,
      "Ġ34": 7760,
      "collection": 7761,
      "ĠElement": 7762,
      "amma": 7763,
      "rcu": 7764,
      "Ġ\"\";": 7765,
      "PINMUX": 7766,
      "aps": 7767,
      "Big": 7768,
      "Face": 7769,
      "Ġ33": 7770,
      "CONNECT": 7771,
      "elements": 7772,
      "grade": 7773,
      "Ġsafe": 7774,
      "ecutor": 7775,
      "WARNING": 7776,
      "Bus": 7777,
      "Ġbucket": 7778,
      "Messages": 7779,
      "Ġmbed": 7780,
      "utable": 7781,
      "Signature": 7782,
      "xad": 7783,
      "Environment": 7784,
      "VLINK": 7785,
      "SMP": 7786,
      "SEQUENTIAL": 7787,
      "ĠAS": 7788,
      "FROM": 7789,
      "Character": 7790,
      "Abs": 7791,
      "è®": 7792,
      "Ġarr": 7793,
      "factory": 7794,
      "RV": 7795,
      "msemseQ": 7796,
      "inet": 7797,
      "Setup": 7798,
      "binary": 7799,
      "TD": 7800,
      "Ġbest": 7801,
      "oog": 7802,
      "padapter": 7803,
      "REGION": 7804,
      "Ġfactory": 7805,
      "uE": 7806,
      "Ġalgorithm": 7807,
      "Converter": 7808,
      "mx": 7809,
      "Ġgeneric": 7810,
      "Ġabort": 7811,
      "emitter": 7812,
      "ĠCLA": 7813,
      "panel": 7814,
      "generate": 7815,
      "Ġetc": 7816,
      "Ġappear": 7817,
      "Ġslice": 7818,
      "ĠDIRECT": 7819,
      "AIF": 7820,
      "objects": 7821,
      "Ġ56": 7822,
      "ĠAnd": 7823,
      "TEXTURE": 7824,
      "services": 7825,
      "tid": 7826,
      "ership": 7827,
      "Ġpush": 7828,
      "IFF": 7829,
      "Azure": 7830,
      "ims": 7831,
      "which": 7832,
      "Io": 7833,
      "ĠGraph": 7834,
      "ODE": 7835,
      "ISH": 7836,
      "Ġ$_": 7837,
      "ĠRet": 7838,
      "Ġmov": 7839,
      "vars": 7840,
      ")&": 7841,
      "ĠItem": 7842,
      "Ġcls": 7843,
      "tests": 7844,
      "150": 7845,
      "Ġchannels": 7846,
      "Ġorigin": 7847,
      "ĠGLAPI": 7848,
      "EVER": 7849,
      "foc": 7850,
      "æĹ": 7851,
      "ium": 7852,
      "Ġstats": 7853,
      "<>": 7854,
      "ITION": 7855,
      "chart": 7856,
      "Try": 7857,
      "Ġindicates": 7858,
      "GLOBAL": 7859,
      "Snapshot": 7860,
      "iface": 7861,
      "CHED": 7862,
      "TIO": 7863,
      "ĠScal": 7864,
      "ĠĉĉĉĉĉĠĠĠ": 7865,
      "orary": 7866,
      "Ġdistribute": 7867,
      "KEN": 7868,
      "irror": 7869,
      "Ġaudio": 7870,
      "Unlock": 7871,
      "ĠSign": 7872,
      "Ġ*)&": 7873,
      "ulated": 7874,
      "Ġmachine": 7875,
      "ĠPWR": 7876,
      "lif": 7877,
      "åŃ": 7878,
      "ĠRights": 7879,
      "VID": 7880,
      "ceeded": 7881,
      "PWM": 7882,
      "Seconds": 7883,
      "ug": 7884,
      "Tuple": 7885,
      "Ġ','": 7886,
      "FLASH": 7887,
      "Ġcn": 7888,
      "Ġchildren": 7889,
      "expression": 7890,
      "ĠView": 7891,
      "Ġpoll": 7892,
      "ighb": 7893,
      "ĠSTD": 7894,
      "Ġretry": 7895,
      "flat": 7896,
      "Ġrb": 7897,
      "idle": 7898,
      "Ġboot": 7899,
      "ĠMarshal": 7900,
      "TUN": 7901,
      "ĠCC": 7902,
      "Ġinterrupts": 7903,
      "SDL": 7904,
      "ĠWait": 7905,
      "abcdef": 7906,
      "cout": 7907,
      "Ġcert": 7908,
      "Ġdump": 7909,
      "Ġ>>>": 7910,
      "Ġ'#": 7911,
      "Ġ<-": 7912,
      "ĠNRF": 7913,
      "ĠSPECIAL": 7914,
      "ational": 7915,
      "messageInfo": 7916,
      "SHORT": 7917,
      "Ġtermin": 7918,
      "1024": 7919,
      "SYSTEM": 7920,
      "virt": 7921,
      "ITCH": 7922,
      "COD": 7923,
      "ITEM": 7924,
      "Stub": 7925,
      "subsc": 7926,
      "Geometry": 7927,
      "Ġaccord": 7928,
      "FFF": 7929,
      "BOOL": 7930,
      "*>(": 7931,
      "alanc": 7932,
      "ErrorCode": 7933,
      ")){": 7934,
      "ĠMPU": 7935,
      "ĠĠĠĠĠĠĊ": 7936,
      "buffers": 7937,
      "HCI": 7938,
      "SUM": 7939,
      "Ġauthor": 7940,
      "CTR": 7941,
      "ĠOMAP": 7942,
      "LAT": 7943,
      "processor": 7944,
      "Ġmenu": 7945,
      "Ġseg": 7946,
      "labels": 7947,
      "Author": 7948,
      "ĠACTION": 7949,
      "ĠErrInvalidLength": 7950,
      "background": 7951,
      "subdev": 7952,
      "Ġmade": 7953,
      "Ġ------------------------------------------------": 7954,
      "139": 7955,
      "Ġsoc": 7956,
      "slave": 7957,
      "INTE": 7958,
      "DRM": 7959,
      "cccc": 7960,
      "240": 7961,
      "ĠBuild": 7962,
      "(\\": 7963,
      "aging": 7964,
      "(@": 7965,
      "Ġchan": 7966,
      "structions": 7967,
      "Ġfw": 7968,
      "BIG": 7969,
      ")&&": 7970,
      "Ġday": 7971,
      "factor": 7972,
      "xample": 7973,
      "vif": 7974,
      "LOOP": 7975,
      "ofs": 7976,
      "BANK": 7977,
      "Contains": 7978,
      "Ġmultip": 7979,
      "Ġrest": 7980,
      "ĠPromise": 7981,
      "ĠSupport": 7982,
      "unic": 7983,
      "ĠLib": 7984,
      "Ġfuture": 7985,
      "ĠPOS": 7986,
      "once": 7987,
      "IME": 7988,
      "grpc": 7989,
      "Ġdescrib": 7990,
      "Ġiss": 7991,
      "Ġmbedtls": 7992,
      "stanti": 7993,
      "olar": 7994,
      "Ġ2017": 7995,
      "seek": 7996,
      "Bt": 7997,
      "Ġ'-": 7998,
      "adient": 7999,
      "ĠFloat": 8000,
      "APIENTRYP": 8001,
      "005": 8002,
      "Ctrl": 8003,
      "TASK": 8004,
      "EMPTY": 8005,
      "Light": 8006,
      "IOS": 8007,
      "ĠSimple": 8008,
      "Ġimg": 8009,
      "ĠAuthor": 8010,
      "ĠExample": 8011,
      "RELE": 8012,
      "ĠTx": 8013,
      "Material": 8014,
      "Ġrelative": 8015,
      "DES": 8016,
      "idual": 8017,
      "ghz": 8018,
      "ĠDBG": 8019,
      "ĠSERV": 8020,
      "Rest": 8021,
      "Ġcm": 8022,
      "Functions": 8023,
      "native": 8024,
      "aving": 8025,
      "REGS": 8026,
      "ĠUTF": 8027,
      "ĠBT": 8028,
      "ACPI": 8029,
      "codes": 8030,
      "ĠSNDRV": 8031,
      "isto": 8032,
      "xcf": 8033,
      "ĠMIT": 8034,
      "Ġgranted": 8035,
      "Ġinitialized": 8036,
      "Enc": 8037,
      "ĠLLVM": 8038,
      "ĠNS": 8039,
      "Ġdefines": 8040,
      "metric": 8041,
      "Dict": 8042,
      "ĠJava": 8043,
      "ĠHOLDERS": 8044,
      "144": 8045,
      "same": 8046,
      "Ġscreen": 8047,
      "PRES": 8048,
      "Plan": 8049,
      "Ġtuple": 8050,
      "ĠVk": 8051,
      "Setting": 8052,
      "ĠServer": 8053,
      "hz": 8054,
      "Ġface": 8055,
      "Ġdistance": 8056,
      "Help": 8057,
      "vma": 8058,
      "ĠVec": 8059,
      "inherit": 8060,
      "sleep": 8061,
      "124": 8062,
      "ĠĉĠĠĠĠĉ": 8063,
      "058": 8064,
      "flash": 8065,
      "130": 8066,
      "ĠMD": 8067,
      "ynchron": 8068,
      "Ġims": 8069,
      "Ġ/************************************************************************": 8070,
      "lua": 8071,
      "Ġmaster": 8072,
      "Ġxfs": 8073,
      "Transport": 8074,
      "Ġrole": 8075,
      "matches": 8076,
      ")\"": 8077,
      "ĠclassName": 8078,
      "Ġprec": 8079,
      "SEND": 8080,
      "dy": 8081,
      "Ġfc": 8082,
      "QM": 8083,
      "ĠINDIRECT": 8084,
      "999": 8085,
      "Ġ'@": 8086,
      "ĠVer": 8087,
      "'));": 8088,
      "Ġequ": 8089,
      "ĠĠĠĠĠĠĠĠĠĠĠĠĠĠĠĠĠĠĠĠĠĠĠĠĠĠĠĠĠĠĠĠĠĠĠĠĠĠĠĠĠĠĠĠĠĠĠĠĠĠĠĠĠĠĠĠĠĠĠĠĠĠĠĠĠĠĠĠĠĠ": 8090,
      "ĠHow": 8091,
      "Ġnetdev": 8092,
      "Ġaws": 8093,
      "ĠWork": 8094,
      "ĠREAD": 8095,
      "Ġforward": 8096,
      "quent": 8097,
      "Ġfeatures": 8098,
      "DRAM": 8099,
      "Matcher": 8100,
      "Ġ/****************": 8101,
      "ĠCG": 8102,
      "Origin": 8103,
      "SERVER": 8104,
      "Secret": 8105,
      "Ġtc": 8106,
      "xdd": 8107,
      "substream": 8108,
      "MK": 8109,
      "Mill": 8110,
      "BIND": 8111,
      "Ġ[]*": 8112,
      "ĠULONG": 8113,
      "ifications": 8114,
      "ZERO": 8115,
      "ReadWriteAccess": 8116,
      "Locale": 8117,
      "ĠCONSEQUENTIAL": 8118,
      "progress": 8119,
      "Resolver": 8120,
      "Ġ2018": 8121,
      "LIT": 8122,
      "classes": 8123,
      "Ġwatch": 8124,
      "Ġfb": 8125,
      "trim": 8126,
      "quot": 8127,
      "install": 8128,
      "ĠĠĠĠĠĠĠĠĠĠĠĠĠĠĠĠĠĠĠĠĠĠĠĠĠĠĠĠĠĠĠĠĠĠĠĠĠĠĠĠĠĠĠĠĠĠĠĠĠĠĠ": 8129,
      "Anim": 8130,
      "ĠWindows": 8131,
      "Head": 8132,
      "168": 8133,
      "dirty": 8134,
      "Ġdrop": 8135,
      "RAW": 8136,
      "VS": 8137,
      "Ġassign": 8138,
      "ĠExt": 8139,
      "Seq": 8140,
      "Ġ?>": 8141,
      "ĠEnum": 8142,
      "FLUSH": 8143,
      "Ġrec": 8144,
      "ĠPROF": 8145,
      "Angle": 8146,
      "tended": 8147,
      "SIBILITY": 8148,
      "nop": 8149,
      "Ġcome": 8150,
      "big": 8151,
      "590": 8152,
      "Ġ35": 8153,
      "Ġstride": 8154,
      "correct": 8155,
      "Summary": 8156,
      "ĠMPI": 8157,
      "Shell": 8158,
      "Ty": 8159,
      "ermin": 8160,
      "sdk": 8161,
      "ĠdAtA": 8162,
      "always": 8163,
      "Admin": 8164,
      "unmap": 8165,
      "ysql": 8166,
      "============================================================================": 8167,
      "CESS": 8168,
      "*-": 8169,
      "Ġdeal": 8170,
      "ĠDEFINE": 8171,
      "ERY": 8172,
      "ĠInternal": 8173,
      "GV": 8174,
      "iw": 8175,
      "Now": 8176,
      "Ġready": 8177,
      "Ġuv": 8178,
      "NB": 8179,
      "Ġmt": 8180,
      "tokens": 8181,
      "endl": 8182,
      "aaaaaaaaaaaaaaaa": 8183,
      "pwm": 8184,
      "ĠPh": 8185,
      "æĪ": 8186,
      "intf": 8187,
      "Ġ44": 8188,
      "lour": 8189,
      "Ġwell": 8190,
      "ĠASN": 8191,
      "INV": 8192,
      "gol": 8193,
      "avail": 8194,
      "Hint": 8195,
      "Ġcolumns": 8196,
      "EIO": 8197,
      "gbe": 8198,
      "ĠSI": 8199,
      "Dynamic": 8200,
      "SMC": 8201,
      "specific": 8202,
      "Bind": 8203,
      "components": 8204,
      "Ġinside": 8205,
      "Ġ';": 8206,
      "ird": 8207,
      "Ġ).": 8208,
      "Ġlistener": 8209,
      "Ġregard": 8210,
      "Ġfactor": 8211,
      "Ġproc": 8212,
      "GLenum": 8213,
      "NF": 8214,
      "Ġbind": 8215,
      "aries": 8216,
      "ially": 8217,
      "Nil": 8218,
      "coming": 8219,
      "ĠAbstract": 8220,
      "abort": 8221,
      "Period": 8222,
      "è¡": 8223,
      "DIAN": 8224,
      "ĠLen": 8225,
      "maj": 8226,
      "Prev": 8227,
      "ĠClock": 8228,
      "Ġmissing": 8229,
      "ieee": 8230,
      "Ġexpr": 8231,
      "sent": 8232,
      "Pub": 8233,
      "dispatch": 8234,
      "Ġvalidation": 8235,
      "Cast": 8236,
      "Same": 8237,
      "Serialization": 8238,
      "mplates": 8239,
      "THRESH": 8240,
      "chr": 8241,
      "Ġlarge": 8242,
      "amd": 8243,
      "Ġretval": 8244,
      "vendor": 8245,
      "Ġoverflow": 8246,
      "Ġframes": 8247,
      "ĠModule": 8248,
      "Ġstarting": 8249,
      "Optional": 8250,
      "produce": 8251,
      "eners": 8252,
      "iop": 8253,
      "Ġactually": 8254,
      "Ġpassword": 8255,
      "ĠPROFITS": 8256,
      "transaction": 8257,
      "toBe": 8258,
      "heap": 8259,
      "TRANS": 8260,
      "ncies": 8261,
      "117": 8262,
      "TON": 8263,
      "Ġ59": 8264,
      "3308": 8265,
      "springframework": 8266,
      "ĠFormat": 8267,
      "Ġtexture": 8268,
      "-----": 8269,
      "Cancel": 8270,
      "ĠLOSS": 8271,
      "Ġ[-": 8272,
      "Ġdt": 8273,
      ".)": 8274,
      "220": 8275,
      "evt": 8276,
      "coord": 8277,
      "~~~~~~~~": 8278,
      "selection": 8279,
      "alance": 8280,
      "Ġparsed": 8281,
      ")((": 8282,
      "andidate": 8283,
      "eration": 8284,
      "Ġder": 8285,
      "EFF": 8286,
      "yper": 8287,
      "rules": 8288,
      "SCALE": 8289,
      "ĠGe": 8290,
      "parator": 8291,
      "urred": 8292,
      "Ġsignature": 8293,
      "WH": 8294,
      "MULT": 8295,
      "Ġicon": 8296,
      "ĠVAL": 8297,
      "Library": 8298,
      "[];": 8299,
      "efficient": 8300,
      "Ġeq": 8301,
      "numeric": 8302,
      "aker": 8303,
      "ĠCreates": 8304,
      "DEL": 8305,
      "ç»": 8306,
      "Ġtokens": 8307,
      "ommu": 8308,
      "ENTAL": 8309,
      "Ġprotobuf": 8310,
      "Pin": 8311,
      "Ġsupports": 8312,
      "ĠSIG": 8313,
      "ters": 8314,
      "Ġbin": 8315,
      "GLuint": 8316,
      "MAGIC": 8317,
      "\"></": 8318,
      "acon": 8319,
      "xec": 8320,
      "ĠNum": 8321,
      "Focus": 8322,
      "Ġ39": 8323,
      "ĠBytes": 8324,
      "##_": 8325,
      "Complete": 8326,
      "tok": 8327,
      "ĠTarget": 8328,
      "INED": 8329,
      "ĠCollection": 8330,
      "margin": 8331,
      "Ġprevent": 8332,
      "forEach": 8333,
      "INCLU": 8334,
      "uk": 8335,
      "Future": 8336,
      "ĠResponse": 8337,
      "Ġtp": 8338,
      "LER": 8339,
      "dif": 8340,
      "IER": 8341,
      "asy": 8342,
      "Push": 8343,
      "Ġsprintf": 8344,
      "Ġchecks": 8345,
      "ctp": 8346,
      "âķ": 8347,
      "0200": 8348,
      "FIRST": 8349,
      "Ġprops": 8350,
      "OBJ": 8351,
      "Ġargc": 8352,
      "xdf": 8353,
      "BYTES": 8354,
      "ante": 8355,
      "ĠIEEE": 8356,
      "Ġinterval": 8357,
      "Ġ2015": 8358,
      "Ð»": 8359,
      "Ġseconds": 8360,
      "IGENCE": 8361,
      "missions": 8362,
      "avlink": 8363,
      "Should": 8364,
      "Ip": 8365,
      "ĠVK": 8366,
      "GLIGENCE": 8367,
      "Ġignored": 8368,
      "xce": 8369,
      "Ġ37": 8370,
      "FieldValue": 8371,
      "ĠNEGLIGENCE": 8372,
      "xae": 8373,
      "Ġweb": 8374,
      "Ġbig": 8375,
      "alog": 8376,
      "complex": 8377,
      "primary": 8378,
      "Ġaccompany": 8379,
      "configuration": 8380,
      "Factor": 8381,
      "0003": 8382,
      "STACK": 8383,
      "Switch": 8384,
      "locity": 8385,
      "Ġbehavior": 8386,
      "distance": 8387,
      "orth": 8388,
      "REV": 8389,
      "Ġallocation": 8390,
      "Inner": 8391,
      "ĠShift": 8392,
      "ĠCount": 8393,
      "Animation": 8394,
      "ensitive": 8395,
      ";}": 8396,
      "radio": 8397,
      "Hs": 8398,
      "Win": 8399,
      "RSA": 8400,
      "ancell": 8401,
      "Border": 8402,
      "Ġprogress": 8403,
      "2020": 8404,
      "ĠPROC": 8405,
      "Ġrs": 8406,
      "Diff": 8407,
      "STIT": 8408,
      "Fatalf": 8409,
      "'+'": 8410,
      "PED": 8411,
      "ĠPermission": 8412,
      "Ġcreating": 8413,
      "STORE": 8414,
      "Ġcast": 8415,
      "machine": 8416,
      "site": 8417,
      "KP": 8418,
      "Ġproxy": 8419,
      "blank": 8420,
      "Aut": 8421,
      "Peer": 8422,
      "Ġcalcul": 8423,
      "Ġisn": 8424,
      "ĠARE": 8425,
      "PHA": 8426,
      "164": 8427,
      "world": 8428,
      "ghij": 8429,
      "BOX": 8430,
      "Constructor": 8431,
      "Ġaccompanying": 8432,
      "ĠEND": 8433,
      "Ġpod": 8434,
      "ros": 8435,
      "Ġmean": 8436,
      "ĠPacket": 8437,
      "Ġmemcpy": 8438,
      "Dictionary": 8439,
      "Ñĥ": 8440,
      "libc": 8441,
      "bss": 8442,
      "Sys": 8443,
      "Ġseed": 8444,
      "ĠNOTE": 8445,
      "ĉĉĉĉĉĉ": 8446,
      "ĠAc": 8447,
      "Ġprofile": 8448,
      "Low": 8449,
      "Ġperf": 8450,
      "ĠValid": 8451,
      "reason": 8452,
      "riptors": 8453,
      "Ġfrequency": 8454,
      "ĠSND": 8455,
      "ĠConstant": 8456,
      "Ġdetermine": 8457,
      "ĠReact": 8458,
      "atom": 8459,
      "month": 8460,
      "_\\": 8461,
      "Ġprovider": 8462,
      "isset": 8463,
      "LABEL": 8464,
      "Drop": 8465,
      "kcontrol": 8466,
      "################################": 8467,
      "oice": 8468,
      "Ġroutine": 8469,
      "OLE": 8470,
      "calc": 8471,
      "BSD": 8472,
      "ecycle": 8473,
      "ĠGLsizei": 8474,
      "Alpha": 8475,
      "Ġmulti": 8476,
      "DQ": 8477,
      "ĠPyObject": 8478,
      "perf": 8479,
      "Ġsamples": 8480,
      "ĠFirst": 8481,
      "quare": 8482,
      "Ġllvm": 8483,
      "xed": 8484,
      "<>();": 8485,
      "Ġ77": 8486,
      "Ġ%%": 8487,
      "Ġnumbers": 8488,
      "Nullable": 8489,
      "Ġsaved": 8490,
      "Ġaccompan": 8491,
      "Ġdefinitions": 8492,
      "seud": 8493,
      "--)": 8494,
      "DRIVER": 8495,
      "ĠUnit": 8496,
      "currency": 8497,
      "Sizeof": 8498,
      "Ġstbi": 8499,
      "Ġfast": 8500,
      "Fragment": 8501,
      "fprintf": 8502,
      "allocate": 8503,
      "kvm": 8504,
      "pell": 8505,
      "checked": 8506,
      "gain": 8507,
      "åĽ": 8508,
      "Ġclasses": 8509,
      "Scheme": 8510,
      "Ġduration": 8511,
      "ĠCOL": 8512,
      "ctr": 8513,
      "ĠPM": 8514,
      "Diagnost": 8515,
      "ĠSte": 8516,
      "Ġreading": 8517,
      "enerated": 8518,
      "lev": 8519,
      "Ġnoexcept": 8520,
      "Ġimmediate": 8521,
      "aybe": 8522,
      "priate": 8523,
      "135": 8524,
      "ĠEC": 8525,
      "oracle": 8526,
      "Ġminimum": 8527,
      "Ġhandling": 8528,
      "ĠSTRI": 8529,
      "Family": 8530,
      "++,": 8531,
      "UNIT": 8532,
      "Ġsigned": 8533,
      "ĠPAR": 8534,
      "Ġoc": 8535,
      "Ġexact": 8536,
      "Bz": 8537,
      "170": 8538,
      "BQ": 8539,
      "constructor": 8540,
      "Uniform": 8541,
      "urst": 8542,
      "148": 8543,
      "Bad": 8544,
      "queues": 8545,
      "xcb": 8546,
      "Ġshall": 8547,
      "SCSI": 8548,
      "xde": 8549,
      "ĠPC": 8550,
      "Ġbitmap": 8551,
      "Framework": 8552,
      "Ġquest": 8553,
      "ĠassertThat": 8554,
      "Ġcycle": 8555,
      "ĠOtherwise": 8556,
      "Ġadjust": 8557,
      "some": 8558,
      "Ġgrid": 8559,
      "Ġcommands": 8560,
      "Ġrep": 8561,
      "Ġnone": 8562,
      "using": 8563,
      "cos": 8564,
      "UBLE": 8565,
      "dential": 8566,
      "ĠRedistribution": 8567,
      "Ġperipheral": 8568,
      "xfs": 8569,
      "Ins": 8570,
      "Ġdeep": 8571,
      "threshold": 8572,
      "Dev": 8573,
      "VA": 8574,
      "ĠFL": 8575,
      "Ġagree": 8576,
      "ĠINTERRUP": 8577,
      "Columns": 8578,
      "Ġleg": 8579,
      "ĠMP": 8580,
      "EXTEN": 8581,
      "ODS": 8582,
      "Ġconfigured": 8583,
      "losing": 8584,
      "Ġhalf": 8585,
      "çĶ¨": 8586,
      "ĠPHP": 8587,
      "ĠDouble": 8588,
      "Ġregs": 8589,
      ".'": 8590,
      "ĠStruct": 8591,
      "Ġqual": 8592,
      "focus": 8593,
      "ĠGLuint": 8594,
      "Delegate": 8595,
      "Ġ\";": 8596,
      "Ġdue": 8597,
      "Ġindent": 8598,
      "Ġaccording": 8599,
      "hdev": 8600,
      "Ġloaded": 8601,
      "xee": 8602,
      "vr": 8603,
      "ifest": 8604,
      "Ġadv": 8605,
      "SND": 8606,
      "LF": 8607,
      "branch": 8608,
      "564": 8609,
      "()]": 8610,
      "Ġedit": 8611,
      "abcdefghij": 8612,
      "UNC": 8613,
      "Ġtcp": 8614,
      "backend": 8615,
      "Monitor": 8616,
      "pw": 8617,
      "cols": 8618,
      "Ġexecution": 8619,
      "Shift": 8620,
      "Ġspi": 8621,
      "Ġmis": 8622,
      "Ġversions": 8623,
      "UG": 8624,
      "Ġ2014": 8625,
      "Payload": 8626,
      "operations": 8627,
      "DEFINE": 8628,
      "Sim": 8629,
      "BOOT": 8630,
      "Mapper": 8631,
      "Ġitself": 8632,
      "Ġregistered": 8633,
      "Ġplayer": 8634,
      "rgb": 8635,
      "anit": 8636,
      "Ġboard": 8637,
      "Execute": 8638,
      "XXXX": 8639,
      "Ġpg": 8640,
      "Reason": 8641,
      "Ġinvok": 8642,
      "Ġlpfc": 8643,
      "binding": 8644,
      "iming": 8645,
      "ĠSys": 8646,
      "ĠSUCH": 8647,
      "Ġdeclare": 8648,
      "LAST": 8649,
      "erc": 8650,
      "irc": 8651,
      "ones": 8652,
      "--------------": 8653,
      "SLOT": 8654,
      "Ġcompletion": 8655,
      "LK": 8656,
      "kb": 8657,
      "Ġsym": 8658,
      "Ġparticular": 8659,
      "ĠKC": 8660,
      "Ġhook": 8661,
      "MCU": 8662,
      "year": 8663,
      "Ġhtml": 8664,
      "setting": 8665,
      "Ġvertex": 8666,
      "Ġ*/'\\": 8667,
      "ĠReal": 8668,
      "IH": 8669,
      "wrapper": 8670,
      "ICATION": 8671,
      "ĠCom": 8672,
      "DataType": 8673,
      "ENDIAN": 8674,
      "SETT": 8675,
      "MSI": 8676,
      "UREMENT": 8677,
      "pmd": 8678,
      "ĠPER": 8679,
      "ĠUint": 8680,
      "Ġproper": 8681,
      "258": 8682,
      "Ġhelper": 8683,
      "HAVE": 8684,
      "Ġrestriction": 8685,
      "Drawing": 8686,
      "303": 8687,
      "Ġeth": 8688,
      "aring": 8689,
      "ĠAr": 8690,
      "fm": 8691,
      "xdb": 8692,
      "ship": 8693,
      "Ġblk": 8694,
      "ĠBPF": 8695,
      "?\"": 8696,
      "ĠHEADER": 8697,
      "Ġconsider": 8698,
      "dap": 8699,
      "IOException": 8700,
      "POLL": 8701,
      "Ġdetermin": 8702,
      "Ġmath": 8703,
      "ĠConstruct": 8704,
      "Asset": 8705,
      "Ġreproduce": 8706,
      "Ġunless": 8707,
      "pins": 8708,
      "154": 8709,
      "Ġ67": 8710,
      "getType": 8711,
      ">()": 8712,
      "ĠSTR": 8713,
      "ek": 8714,
      "levels": 8715,
      "Named": 8716,
      "<=": 8717,
      "ĠSu": 8718,
      "043": 8719,
      "Ġconstraint": 8720,
      "Ðº": 8721,
      "Ġknown": 8722,
      "vl": 8723,
      "oose": 8724,
      "ĠOPEN": 8725,
      "-------": 8726,
      "ORITY": 8727,
      "limits": 8728,
      "Ġworks": 8729,
      "Ġhdr": 8730,
      "Eq": 8731,
      "concat": 8732,
      "00000020": 8733,
      "History": 8734,
      "arry": 8735,
      "ATH": 8736,
      "netif": 8737,
      "former": 8738,
      "Ġclean": 8739,
      "Ġsuccessful": 8740,
      "================================================================================================================================": 8741,
      "Ġ$.": 8742,
      "ayment": 8743,
      "ilar": 8744,
      "SCFG": 8745,
      "113": 8746,
      "STITUTE": 8747,
      "ĠĠĠĠĠĠĠĠĠĠĠĠĠĠĠĠĠĠĠĠĠĠĠĠĠĠĠĠĠĠĠĠĠĠĠĠĠĠĠĠĠĠĠĠĠĠĠĠĠ": 8748,
      "ĠCMD": 8749,
      "Ġwin": 8750,
      "Mutex": 8751,
      "Ġworld": 8752,
      ")::": 8753,
      "Stmt": 8754,
      "401": 8755,
      "Ġmanager": 8756,
      "Variant": 8757,
      "Ġtakes": 8758,
      "}',": 8759,
      "ĠHOW": 8760,
      "ĠNON": 8761,
      "Ġax": 8762,
      "craft": 8763,
      "eh": 8764,
      "Permission": 8765,
      "DW": 8766,
      "Subject": 8767,
      "visible": 8768,
      "FAST": 8769,
      "AMP": 8770,
      "origin": 8771,
      "ĠSTRICT": 8772,
      "lier": 8773,
      "214": 8774,
      ".',": 8775,
      "DST": 8776,
      "losure": 8777,
      "Ġ((__": 8778,
      "PREFIX": 8779,
      "Ġstatement": 8780,
      "118": 8781,
      "Ġbottom": 8782,
      "Clip": 8783,
      "parts": 8784,
      "ÙĦ": 8785,
      "ĠRef": 8786,
      "Attrib": 8787,
      "SHARE": 8788,
      "otg": 8789,
      "Break": 8790,
      ":'": 8791,
      "STX": 8792,
      "compile": 8793,
      "angular": 8794,
      "HAN": 8795,
      "STEP": 8796,
      "ĠMatch": 8797,
      "Ġest": 8798,
      "azure": 8799,
      "jav": 8800,
      "Note": 8801,
      "MF": 8802,
      "ĠParameters": 8803,
      "cdev": 8804,
      "Patch": 8805,
      "dialog": 8806,
      "ĠEVEN": 8807,
      "Accept": 8808,
      "ĠSelf": 8809,
      "ĠBig": 8810,
      "Blocks": 8811,
      "cam": 8812,
      "119": 8813,
      "0400": 8814,
      "ism": 8815,
      "Ġhappen": 8816,
      "Ġdevm": 8817,
      "decltype": 8818,
      "[-": 8819,
      "SMB": 8820,
      "Ġbackground": 8821,
      "Ġautorest": 8822,
      "AIMED": 8823,
      "CHIP": 8824,
      "aking": 8825,
      "illa": 8826,
      "spca": 8827,
      "ĠPOSSIBILITY": 8828,
      "Codec": 8829,
      "Lat": 8830,
      "xeb": 8831,
      "ĠErrInvalidLengthGenerated": 8832,
      "Decimal": 8833,
      "VISED": 8834,
      "LU": 8835,
      "DH": 8836,
      "ĠBNX": 8837,
      "directory": 8838,
      "AU": 8839,
      "walk": 8840,
      "Structure": 8841,
      "Ġnor": 8842,
      "Skip": 8843,
      "Ġcomb": 8844,
      "illed": 8845,
      "iov": 8846,
      "??": 8847,
      "apis": 8848,
      "xcd": 8849,
      "AVAIL": 8850,
      "STAMP": 8851,
      "'=>": 8852,
      "Ġcreates": 8853,
      "ĠADVISED": 8854,
      "']);": 8855,
      "xCE": 8856,
      "ĠSTATUS": 8857,
      "arger": 8858,
      "Destroy": 8859,
      "submit": 8860,
      "TRIGGER": 8861,
      "wb": 8862,
      "\\\":\\\"": 8863,
      "ĠRx": 8864,
      "INESS": 8865,
      "spaces": 8866,
      "ĠCONNE": 8867,
      "CURRENT": 8868,
      "Force": 8869,
      "pendencies": 8870,
      "ĠAP": 8871,
      "XF": 8872,
      "Validate": 8873,
      ">(\"": 8874,
      "lems": 8875,
      "CIDENTAL": 8876,
      "Ġfirmware": 8877,
      "ropp": 8878,
      "ĠĠĠĠĠĠĠĠĠĠĠĠĠĠĠĠĠĠĠĠĠĠĠĠĠĠĠĠĠĠĠĠĠĠĠĠĠĠĠĠĠĠĠĠĠĠĠĠĠĠ": 8879,
      "surface": 8880,
      "ĠSWIG": 8881,
      "ĠRece": 8882,
      "0101": 8883,
      "onical": 8884,
      "finish": 8885,
      "''": 8886,
      "ĠSP": 8887,
      "ĠINCIDENTAL": 8888,
      "Ġ[]_": 8889,
      "Ġsi": 8890,
      "DWORD": 8891,
      "Ġrelated": 8892,
      "Transfer": 8893,
      "mid": 8894,
      "Ġcomponents": 8895,
      "Available": 8896,
      "INST": 8897,
      "Ġresolve": 8898,
      "ĠCustom": 8899,
      "ĠIB": 8900,
      "Ġcvmx": 8901,
      "00000004": 8902,
      "ircle": 8903,
      "aves": 8904,
      "xea": 8905,
      "EST": 8906,
      "IPHER": 8907,
      "ung": 8908,
      "ĠDISCLAIMED": 8909,
      "Ġkw": 8910,
      "Tile": 8911,
      "cli": 8912,
      "PROPER": 8913,
      "Ġwrap": 8914,
      "Google": 8915,
      "outer": 8916,
      "ĠExp": 8917,
      "Extensions": 8918,
      "Ġcancel": 8919,
      "Ġ\"../": 8920,
      "bn": 8921,
      "ACC": 8922,
      "æĺ": 8923,
      "Ġdisk": 8924,
      "scalar": 8925,
      "Ġscsi": 8926,
      "Ġtesting": 8927,
      "Implement": 8928,
      "shadow": 8929,
      "Ġ}}": 8930,
      "QP": 8931,
      "lpVtbl": 8932,
      "ĠPrivate": 8933,
      "ZZ": 8934,
      "COND": 8935,
      "Distance": 8936,
      "ATOMIC": 8937,
      "******/": 8938,
      "signature": 8939,
      "ĠSERVICES": 8940,
      "EMPL": 8941,
      "232": 8942,
      "Blob": 8943,
      "Ġthreshold": 8944,
      "ĠReference": 8945,
      "TUPLE": 8946,
      "Present": 8947,
      "Qt": 8948,
      "Place": 8949,
      "Contract": 8950,
      "Ġyield": 8951,
      "Alias": 8952,
      "ĠHel": 8953,
      "users": 8954,
      "Ġmedia": 8955,
      "legacy": 8956,
      "ENTER": 8957,
      "Opts": 8958,
      "ĠHOWEVER": 8959,
      "Ġsg": 8960,
      "weak": 8961,
      "Ġmult": 8962,
      "ali": 8963,
      "two": 8964,
      "ho": 8965,
      "indent": 8966,
      "Ġautomatically": 8967,
      "oring": 8968,
      "btn": 8969,
      "Resp": 8970,
      "IW": 8971,
      "ĠWAY": 8972,
      "effect": 8973,
      "mmu": 8974,
      "multip": 8975,
      "ĠFl": 8976,
      "Ġ(;": 8977,
      "Ġconnected": 8978,
      "Ġ63": 8979,
      "ĠMon": 8980,
      "ĠTimer": 8981,
      "react": 8982,
      "Ġ.=": 8983,
      "Ġcompleted": 8984,
      "tables": 8985,
      "225": 8986,
      "Ġplay": 8987,
      "dummy": 8988,
      "DELETE": 8989,
      "running": 8990,
      "ĠĠĠĠĠĠĠĠĠĠĠĠĠĠĠĠĠĠĠĠĠĠĠĠĠĠĠĠĠĠĠĠĠĠĠĠĠĠĠĠĠĠĠĠĠĠĠĠĠĠĠĠĠĠĠĠ": 8991,
      "ValueType": 8992,
      "ĠTHEORY": 8993,
      "Ġ{},": 8994,
      "Ġ512": 8995,
      "BOARD": 8996,
      "Ġremaining": 8997,
      "xca": 8998,
      "ĠLCD": 8999,
      "plies": 9000,
      "SWAP": 9001,
      "initialize": 9002,
      "MSC": 9003,
      ".(*": 9004,
      "Ġturn": 9005,
      "ĠHas": 9006,
      "cop": 9007,
      "Ġannot": 9008,
      "LANE": 9009,
      "ulse": 9010,
      "TG": 9011,
      "Ġmutex": 9012,
      "Delta": 9013,
      ")\");": 9014,
      "Pipeline": 9015,
      "major": 9016,
      "quant": 9017,
      "reet": 9018,
      "Ġmouse": 9019,
      "Ġencoded": 9020,
      "rtw": 9021,
      "ĠSUBSTITUTE": 9022,
      "Serializer": 9023,
      "ĠAuto": 9024,
      "ĠMS": 9025,
      "ĠCAUSED": 9026,
      "bot": 9027,
      "Ġ'';": 9028,
      "mmio": 9029,
      "CASE": 9030,
      "NORMAL": 9031,
      "VL": 9032,
      "Ġtile": 9033,
      "Models": 9034,
      "Ġct": 9035,
      "mas": 9036,
      "unicode": 9037,
      "ĠComponent": 9038,
      "ĠGOODS": 9039,
      "ĠIdent": 9040,
      "Ġlabels": 9041,
      "DMI": 9042,
      "wx": 9043,
      "inf": 9044,
      "ĠJS": 9045,
      "Ġ2013": 9046,
      "pfn": 9047,
      "als": 9048,
      "ĠPROCUREMENT": 9049,
      "Ġctrl": 9050,
      "Ġzone": 9051,
      "\"].": 9052,
      "Ġborder": 9053,
      "stmt": 9054,
      "RR": 9055,
      "ĠassertTrue": 9056,
      "ĠBUSINESS": 9057,
      "Pred": 9058,
      "Kernel": 9059,
      "ById": 9060,
      "EMPLARY": 9061,
      "Ġintegr": 9062,
      ");\\": 9063,
      "ĠEXEMPLARY": 9064,
      "ĠSQ": 9065,
      "Ġfetch": 9066,
      "Cnt": 9067,
      "Entries": 9068,
      "istribution": 9069,
      "utes": 9070,
      "olicies": 9071,
      "ĠINTERRUPTION": 9072,
      "Scene": 9073,
      "MMC": 9074,
      "Ġce": 9075,
      "oct": 9076,
      "Ġ38": 9077,
      "Ġinputs": 9078,
      "YPT": 9079,
      "137": 9080,
      "ĠDefine": 9081,
      "prog": 9082,
      "DAPM": 9083,
      "pat": 9084,
      "0800": 9085,
      "Ġ127": 9086,
      "fun": 9087,
      "ĠMI": 9088,
      "Ġ%#": 9089,
      "arb": 9090,
      "LINUX": 9091,
      "Marker": 9092,
      "pmu": 9093,
      "ROUND": 9094,
      "231": 9095,
      "OG": 9096,
      "ZX": 9097,
      "assertTrue": 9098,
      "Ġfails": 9099,
      "Ġ//-----------------------------------------------------------------------------": 9100,
      "IEEE": 9101,
      "Ġ\"'": 9102,
      "Ġspecifies": 9103,
      "Ġalias": 9104,
      "0010": 9105,
      "ĠGB": 9106,
      "386": 9107,
      "\"><": 9108,
      "ToS": 9109,
      "ral": 9110,
      "Ġsecurity": 9111,
      "ROOT": 9112,
      "Ġunused": 9113,
      "xdc": 9114,
      "norm": 9115,
      "clean": 9116,
      "expand": 9117,
      "prob": 9118,
      "Ġfinally": 9119,
      "-----------": 9120,
      "Other": 9121,
      "20000000": 9122,
      "HUB": 9123,
      "hint": 9124,
      "ĉĠ": 9125,
      "ĠSm": 9126,
      "istogram": 9127,
      "utdown": 9128,
      "login": 9129,
      "samples": 9130,
      "Formatter": 9131,
      "TOOL": 9132,
      "Lines": 9133,
      "Schedule": 9134,
      "[\\": 9135,
      "Ġscalar": 9136,
      "IMP": 9137,
      "Ġdc": 9138,
      "Clause": 9139,
      "leaf": 9140,
      "ĠUtil": 9141,
      "ĠOb": 9142,
      "Ġenvironment": 9143,
      "dh": 9144,
      "CSS": 9145,
      "Ġamdgpu": 9146,
      "Ġgreater": 9147,
      "PROP": 9148,
      "ĠInst": 9149,
      "ndev": 9150,
      "ĠĉĠĠĠĠĠĠĠ": 9151,
      "NAMESPACE": 9152,
      "Expect": 9153,
      "cached": 9154,
      "LM": 9155,
      "---------": 9156,
      "cont": 9157,
      "Retry": 9158,
      "QUERY": 9159,
      "Done": 9160,
      "golang": 9161,
      "âĸĪ": 9162,
      "Ġcenter": 9163,
      "tg": 9164,
      "ĠTCP": 9165,
      "TOKEN": 9166,
      "SERVICE": 9167,
      "mmutable": 9168,
      "Ġclip": 9169,
      "ritical": 9170,
      "ana": 9171,
      "Ġprimary": 9172,
      "Ġpackets": 9173,
      "retry": 9174,
      "<'": 9175,
      "Ġec": 9176,
      "133": 9177,
      "Disk": 9178,
      "locale": 9179,
      "times": 9180,
      "database": 9181,
      "LEX": 9182,
      "Ġscroll": 9183,
      "040": 9184,
      "yped": 9185,
      "devices": 9186,
      "dv": 9187,
      "enced": 9188,
      "ĠHTML": 9189,
      "Side": 9190,
      "Ġlogging": 9191,
      "unwrap": 9192,
      "Ġinitialization": 9193,
      "Ġmv": 9194,
      "ĠMAVLINK": 9195,
      "ĠPA": 9196,
      "cursive": 9197,
      "JO": 9198,
      "ĠGlobal": 9199,
      "Ġbtrfs": 9200,
      "minor": 9201,
      ",(": 9202,
      "OutputStream": 9203,
      "ilation": 9204,
      "Promise": 9205,
      "most": 9206,
      "Ã¡": 9207,
      "129": 9208,
      "states": 9209,
      "pause": 9210,
      "ĠArgument": 9211,
      "oy": 9212,
      "PHYS": 9213,
      "Ġsqlite": 9214,
      "postIndex": 9215,
      "shutdown": 9216,
      "members": 9217,
      "ĠLE": 9218,
      "Weight": 9219,
      "ONA": 9220,
      "IPH": 9221,
      "Ġwidget": 9222,
      "dentry": 9223,
      "Ġ2012": 9224,
      "Ġcv": 9225,
      "Neg": 9226,
      "ĠĠĠĠĠĠĠĠĠĠĠĠĠĠĠĠĠĠĠĠĠĠĠĠĠĠĠĠĠĠĠĠĠĠĠĠĠĠĠĠĠĠĠĠĠĠĠĠĠĠĠĠĠĠĠ": 9227,
      "Ġsa": 9228,
      "TERN": 9229,
      "/%": 9230,
      "uplicate": 9231,
      "fake": 9232,
      "Make": 9233,
      "connected": 9234,
      "Sockaddr": 9235,
      "146": 9236,
      "Ok": 9237,
      "Capture": 9238,
      "Month": 9239,
      "sWith": 9240,
      "Algorithm": 9241,
      "ĠDocument": 9242,
      "ĠVis": 9243,
      "\":{\"": 9244,
      "ĠIllegalArgumentException": 9245,
      "ĠLay": 9246,
      "Ġcnt": 9247,
      "named": 9248,
      "dword": 9249,
      "Ġcleanup": 9250,
      "Ġva": 9251,
      "Ġbinding": 9252,
      "TU": 9253,
      "like": 9254,
      "ĠFIXME": 9255,
      "ĠUsed": 9256,
      "Ġnote": 9257,
      "smp": 9258,
      "hba": 9259,
      "LSB": 9260,
      "ĠBuilder": 9261,
      "Drag": 9262,
      "override": 9263,
      "ĠController": 9264,
      "********************************************************************************************************************************": 9265,
      "strip": 9266,
      "want": 9267,
      "xfer": 9268,
      "Ġagainst": 9269,
      "inputs": 9270,
      "crate": 9271,
      "allet": 9272,
      "Ġdummy": 9273,
      "mq": 9274,
      "((*": 9275,
      "ivalent": 9276,
      "validation": 9277,
      "Ġcached": 9278,
      "Ġ-->": 9279,
      "Ġ55": 9280,
      "IIF": 9281,
      "Strings": 9282,
      "riptions": 9283,
      "previous": 9284,
      "Upper": 9285,
      "Ġcontributors": 9286,
      "rhs": 9287,
      "Ġ68": 9288,
      "prite": 9289,
      "ternate": 9290,
      "extract": 9291,
      "GFX": 9292,
      "ffffffff": 9293,
      "Ġ47": 9294,
      "TECT": 9295,
      "when": 9296,
      "Ġcurr": 9297,
      "ĠAttribute": 9298,
      "PROCESS": 9299,
      "ctxt": 9300,
      "Ġappropriate": 9301,
      "MIT": 9302,
      "Ġfifo": 9303,
      "dsp": 9304,
      "erature": 9305,
      "080": 9306,
      "126": 9307,
      "got": 9308,
      "ĠPage": 9309,
      "ĠInterface": 9310,
      "Ġ\"=": 9311,
      "tlv": 9312,
      "ĠDescribe": 9313,
      "136": 9314,
      "Instr": 9315,
      "ĠWR": 9316,
      "Ġtables": 9317,
      "IZONA": 9318,
      "viders": 9319,
      "Ġtw": 9320,
      "OVERR": 9321,
      "Management": 9322,
      "ĠBack": 9323,
      "GG": 9324,
      "dicate": 9325,
      "310": 9326,
      "Org": 9327,
      "METHO": 9328,
      "Ġroute": 9329,
      "constraint": 9330,
      "Cert": 9331,
      "Ġda": 9332,
      "Ġ\":": 9333,
      "BIN": 9334,
      "Ġ2000": 9335,
      "EFAULT": 9336,
      "Methods": 9337,
      "Arguments": 9338,
      "Ġaccompanied": 9339,
      "Ġ97": 9340,
      "referred": 9341,
      "coped": 9342,
      "0100": 9343,
      "169": 9344,
      "green": 9345,
      "(\"[": 9346,
      "Ġ86": 9347,
      "ĠBasic": 9348,
      "Ġrestore": 9349,
      "Validator": 9350,
      "Ġweight": 9351,
      "ĠFW": 9352,
      "aunch": 9353,
      "enchmark": 9354,
      "(\".": 9355,
      "ĠIterator": 9356,
      "DEST": 9357,
      "Center": 9358,
      "secret": 9359,
      "awn": 9360,
      "ĠEXT": 9361,
      "021": 9362,
      "ĠPl": 9363,
      "encrypt": 9364,
      "ĠMac": 9365,
      "ivation": 9366,
      "IMM": 9367,
      "MATH": 9368,
      "wt": 9369,
      "()[": 9370,
      "stm": 9371,
      "ĠScalar": 9372,
      "gregate": 9373,
      "jected": 9374,
      "ario": 9375,
      "NOP": 9376,
      "loss": 9377,
      "ĠEigen": 9378,
      "Ġbnx": 9379,
      "Assign": 9380,
      "iet": 9381,
      "Ġreply": 9382,
      "Bin": 9383,
      "gem": 9384,
      "fault": 9385,
      "Ra": 9386,
      "posed": 9387,
      "xda": 9388,
      "Ġisinstance": 9389,
      "MII": 9390,
      "andsh": 9391,
      "sound": 9392,
      "phba": 9393,
      "iq": 9394,
      "wifi": 9395,
      "mach": 9396,
      "Ġrules": 9397,
      "Ġmemset": 9398,
      "iddleware": 9399,
      "subscription": 9400,
      "Ġpartition": 9401,
      "Ġwww": 9402,
      "className": 9403,
      "nested": 9404,
      "Dat": 9405,
      "TV": 9406,
      "ĠEE": 9407,
      "Compat": 9408,
      "BEGIN": 9409,
      "Ġbounds": 9410,
      "880": 9411,
      "anded": 9412,
      "NING": 9413,
      "Declaration": 9414,
      "pow": 9415,
      "fv": 9416,
      "VERTEX": 9417,
      "iso": 9418,
      "DEFINED": 9419,
      "Ġmesh": 9420,
      "ostream": 9421,
      "Ġam": 9422,
      "extensions": 9423,
      "disp": 9424,
      "ibling": 9425,
      "PRIORITY": 9426,
      "ĠSUN": 9427,
      "ĠInstance": 9428,
      "INGE": 9429,
      "ĠEVP": 9430,
      "getInstance": 9431,
      "Ġgame": 9432,
      "ĠNull": 9433,
      "feed": 9434,
      "ising": 9435,
      "ĠMock": 9436,
      "Contact": 9437,
      "WAY": 9438,
      "Ġopcode": 9439,
      "ĠNon": 9440,
      "ĠĠĠĠĠĠĠĠĠĠĠĠĠĠĠĠĠĠĠĠĠĠĠĠĠĠĠĠĠĠĠĠĠĠĠĠĠĠĠĠĠĠĠĠĠĠĠĠĠĠĠĠ": 9441,
      "ITOR": 9442,
      "Ġaux": 9443,
      "Ġcommit": 9444,
      "xs": 9445,
      "ĠDRM": 9446,
      "::_": 9447,
      "ĠHeader": 9448,
      "crease": 9449,
      "refs": 9450,
      "Labels": 9451,
      "Tasks": 9452,
      "ĠValidate": 9453,
      "await": 9454,
      "_/": 9455,
      "apes": 9456,
      "half": 9457,
      "avigation": 9458,
      "204": 9459,
      "nce": 9460,
      "plain": 9461,
      "Ġlicenses": 9462,
      "dq": 9463,
      "KHR": 9464,
      "fire": 9465,
      "git": 9466,
      "Ġradeon": 9467,
      "[^": 9468,
      "WIP": 9469,
      "ALG": 9470,
      "theme": 9471,
      "LowerCase": 9472,
      "Ġ\"\");": 9473,
      "Master": 9474,
      "incip": 9475,
      "Ġ2011": 9476,
      "Ġpe": 9477,
      "Am": 9478,
      "coexist": 9479,
      "ĠMat": 9480,
      "AMD": 9481,
      "8001": 9482,
      "Ġindices": 9483,
      "Ġproducts": 9484,
      "Scal": 9485,
      "kl": 9486,
      "Ġcopying": 9487,
      "UC": 9488,
      "VIEW": 9489,
      "VARI": 9490,
      "Ġrepl": 9491,
      "ailing": 9492,
      "Ġplease": 9493,
      "EventListener": 9494,
      "Ġear": 9495,
      "username": 9496,
      "188": 9497,
      "IntOverflow": 9498,
      "ĠDescriptor": 9499,
      "share": 9500,
      "ĠMIN": 9501,
      "Wr": 9502,
      "Exec": 9503,
      "TK": 9504,
      "TOR": 9505,
      "blue": 9506,
      "PROG": 9507,
      "capture": 9508,
      "Interrupt": 9509,
      "Ġindicate": 9510,
      "064": 9511,
      "()}": 9512,
      "Ġalignment": 9513,
      "Dispatch": 9514,
      "ALPHA": 9515,
      "Ms": 9516,
      "Ùħ": 9517,
      "ĠTry": 9518,
      "ĠRC": 9519,
      "PCSTX": 9520,
      "rtlpriv": 9521,
      "Ġincludes": 9522,
      "ERN": 9523,
      "Replic": 9524,
      "hcd": 9525,
      "columns": 9526,
      "oi": 9527,
      "ĠAPIENTRY": 9528,
      "ENAME": 9529,
      "VOID": 9530,
      "tegr": 9531,
      "CXX": 9532,
      "MID": 9533,
      "ulong": 9534,
      "allowed": 9535,
      "Hex": 9536,
      "mine": 9537,
      "ĠSK": 9538,
      "Ġattach": 9539,
      "ALT": 9540,
      "TIFY": 9541,
      "mbox": 9542,
      "Ġ2019": 9543,
      ";\":": 9544,
      "ducer": 9545,
      "ICS": 9546,
      "700": 9547,
      "Ġdeleted": 9548,
      "wards": 9549,
      "CALLBACK": 9550,
      "RELEASE": 9551,
      "mlx": 9552,
      "Ġownership": 9553,
      "Ġds": 9554,
      "Email": 9555,
      "Transition": 9556,
      "ito": 9557,
      "TW": 9558,
      ",!": 9559,
      "Ġwrapper": 9560,
      "121": 9561,
      "jQuery": 9562,
      "Actions": 9563,
      "Ġlat": 9564,
      "ĠRA": 9565,
      "Ġrd": 9566,
      "Ġprom": 9567,
      "ĠId": 9568,
      "|\\": 9569,
      "Ġ65": 9570,
      "Bo": 9571,
      "Ġuid": 9572,
      "visit": 9573,
[...]
